{
  "version": "1.0",
  "truncation": null,
  "padding": null,
  "added_tokens": [
    {
      "id": 0,
      "content": "<|endoftext|>",
      "single_word": false,
      "lstrip": false,
      "rstrip": false,
      "normalized": false,
      "special": true
    },
    {
      "id": 1,
      "content": "<|pad|>",
      "single_word": false,
      "lstrip": false,
      "rstrip": false,
      "normalized": false,
      "special": true
    },
    {
      "id": 2,
      "content": "<|fim_prefix|>",
      "single_word": false,
      "lstrip": false,
      "rstrip": false,
      "normalized": false,
      "special": true
    },
    {
      "id": 3,
      "content": "<|fim_middle|>",
      "single_word": false,
      "lstrip": false,
      "rstrip": false,
      "normalized": false,
      "special": true
    },
    {
      "id": 4,
      "content": "<|fim_suffix|>",
      "single_word": false,
      "lstrip": false,
      "rstrip": false,
      "normalized": false,
      "special": true
    }
  ],
  "normalizer": null,
  "pre_tokenizer": {
    "type": "ByteLevel",
    "add_prefix_space": false,
    "trim_offsets": true,
    "use_regex": true
  },
  "post_processor": null,
  "decoder": {
    "type": "ByteLevel",
    "add_prefix_space": true,
    "trim_offsets": true,
    "use_regex": true
  },
  "model": {
    "type": "BPE",
    "dropout": null,
    "unk_token": null,
    "continuing_subword_prefix": null,
    "end_of_word_suffix": null,
    "fuse_unk": false,
    "byte_fallback": false,
    "ignore_merges": false,
    "vocab": {
      "<|endoftext|>": 0,
      "<|pad|>": 1,
      "<|fim_prefix|>": 2,
      "<|fim_middle|>": 3,
      "<|fim_suffix|>": 4,
      "!": 5,
      "\"": 6,
      "#": 7,
      "$": 8,
      "%": 9,
      "&": 10,
      "'": 11,
      "(": 12,
      ")": 13,
      "*": 14,
      "+": 15,
      ",": 16,
      "-": 17,
      ".": 18,
      "/": 19,
      "0": 20,
      "1": 21,
      "2": 22,
      "3": 23,
      "4": 24,
      "5": 25,
      "6": 26,
      "7": 27,
      "8": 28,
      "9": 29,
      ":": 30,
      ";": 31,
      "<": 32,
      "=": 33,
      ">": 34,
      "?": 35,
      "@": 36,
      "A": 37,
      "B": 38,
      "C": 39,
      "D": 40,
      "E": 41,
      "F": 42,
      "G": 43,
      "H": 44,
      "I": 45,
      "J": 46,
      "K": 47,
      "L": 48,
      "M": 49,
      "N": 50,
      "O": 51,
      "P": 52,
      "Q": 53,
      "R": 54,
      "S": 55,
      "T": 56,
      "U": 57,
      "V": 58,
      "W": 59,
      "X": 60,
      "Y": 61,
      "Z": 62,
      "[": 63,
      "\\": 64,
      "]": 65,
      "^": 66,
      "_": 67,
      "`": 68,
      "a": 69,
      "b": 70,
      "c": 71,
      "d": 72,
      "e": 73,
      "f": 74,
      "g": 75,
      "h": 76,
      "i": 77,
      "j": 78,
      "k": 79,
      "l": 80,
      "m": 81,
      "n": 82,
      "o": 83,
      "p": 84,
      "q": 85,
      "r": 86,
      "s": 87,
      "t": 88,
      "u": 89,
      "v": 90,
      "w": 91,
      "x": 92,
      "y": 93,
      "z": 94,
      "{": 95,
      "|": 96,
      "}": 97,
      "~": 98,
      "¡": 99,
      "¢": 100,
      "£": 101,
      "¤": 102,
      "¥": 103,
      "¦": 104,
      "§": 105,
      "¨": 106,
      "©": 107,
      "ª": 108,
      "«": 109,
      "¬": 110,
      "®": 111,
      "¯": 112,
      "°": 113,
      "±": 114,
      "²": 115,
      "³": 116,
      "´": 117,
      "µ": 118,
      "¶": 119,
      "·": 120,
      "¸": 121,
      "¹": 122,
      "º": 123,
      "»": 124,
      "¼": 125,
      "½": 126,
      "¾": 127,
      "¿": 128,
      "À": 129,
      "Á": 130,
      "Â": 131,
      "Ã": 132,
      "Ä": 133,
      "Å": 134,
      "Æ": 135,
      "Ç": 136,
      "È": 137,
      "É": 138,
      "Ê": 139,
      "Ë": 140,
      "Ì": 141,
      "Í": 142,
      "Î": 143,
      "Ï": 144,
      "Ð": 145,
      "Ñ": 146,
      "Ò": 147,
      "Ó": 148,
      "Ô": 149,
      "Õ": 150,
      "Ö": 151,
      "×": 152,
      "Ø": 153,
      "Ù": 154,
      "Ú": 155,
      "Û": 156,
      "Ü": 157,
      "Ý": 158,
      "Þ": 159,
      "ß": 160,
      "à": 161,
      "á": 162,
      "â": 163,
      "ã": 164,
      "ä": 165,
      "å": 166,
      "æ": 167,
      "ç": 168,
      "è": 169,
      "é": 170,
      "ê": 171,
      "ë": 172,
      "ì": 173,
      "í": 174,
      "î": 175,
      "ï": 176,
      "ð": 177,
      "ñ": 178,
      "ò": 179,
      "ó": 180,
      "ô": 181,
      "õ": 182,
      "ö": 183,
      "÷": 184,
      "ø": 185,
      "ù": 186,
      "ú": 187,
      "û": 188,
      "ü": 189,
      "ý": 190,
      "þ": 191,
      "ÿ": 192,
      "Ā": 193,
      "ā": 194,
      "Ă": 195,
      "ă": 196,
      "Ą": 197,
      "ą": 198,
      "Ć": 199,
      "ć": 200,
      "Ĉ": 201,
      "ĉ": 202,
      "Ċ": 203,
      "ċ": 204,
      "Č": 205,
      "č": 206,
      "Ď": 207,
      "ď": 208,
      "Đ": 209,
      "đ": 210,
      "Ē": 211,
      "ē": 212,
      "Ĕ": 213,
      "ĕ": 214,
      "Ė": 215,
      "ė": 216,
      "Ę": 217,
      "ę": 218,
      "Ě": 219,
      "ě": 220,
      "Ĝ": 221,
      "ĝ": 222,
      "Ğ": 223,
      "ğ": 224,
      "Ġ": 225,
      "ġ": 226,
      "Ģ": 227,
      "ģ": 228,
      "Ĥ": 229,
      "ĥ": 230,
      "Ħ": 231,
      "ħ": 232,
      "Ĩ": 233,
      "ĩ": 234,
      "Ī": 235,
      "ī": 236,
      "Ĭ": 237,
      "ĭ": 238,
      "Į": 239,
      "į": 240,
      "İ": 241,
      "ı": 242,
      "Ĳ": 243,
      "ĳ": 244,
      "Ĵ": 245,
      "ĵ": 246,
      "Ķ": 247,
      "ķ": 248,
      "ĸ": 249,
      "Ĺ": 250,
      "ĺ": 251,
      "Ļ": 252,
      "ļ": 253,
      "Ľ": 254,
      "ľ": 255,
      "Ŀ": 256,
      "ŀ": 257,
      "Ł": 258,
      "ł": 259,
      "Ń": 260,
      "ĠĠ": 261,
      "ĠĠĠĠ": 262,
      "ĠĠĠ": 263,
      "ĊĠĠĠĠ": 264,
      "se": 265,
      "in": 266,
      "ĊĠĠĠĠĠĠĠ": 267,
      "on": 268,
      "or": 269,
      "at": 270,
      "ĊĠĠĠĠĠĠĠĠ": 271,
      "er": 272,
      "ĊĠĠĠ": 273,
      "Ġt": 274,
      "re": 275,
      "st": 276,
      "en": 277,
      "Ġ=": 278,
      "al": 279,
      "de": 280,
      "Ġa": 281,
      "Ġi": 282,
      "ĊĠĠĠĠĠĠĠĠĠĠĠ": 283,
      "ar": 284,
      "le": 285,
      "lf": 286,
      "self": 287,
      "he": 288,
      "ion": 289,
      "Ġf": 290,
      "Ġc": 291,
      "ut": 292,
      "it": 293,
      "me": 294,
      "ra": 295,
      "ĊĠĠĠĠĠĠĠĠĠĠĠĠ": 296,
      "Ġn": 297,
      "pe": 298,
      "Ġ\"": 299,
      "ct": 300,
      "ro": 301,
      "Ġs": 302,
      "Ġin": 303,
      "as": 304,
      "ed": 305,
      "es": 306,
      "mp": 307,
      "Ġp": 308,
      "Ġre": 309,
      "Ġself": 310,
      "ing": 311,
      "an": 312,
      "Ġo": 313,
      "Ġ'": 314,
      "Ġb": 315,
      "ur": 316,
      "):": 317,
      "Ġthe": 318,
      "ex": 319,
      "lo": 320,
      "Ġ(": 321,
      "ch": 322,
      "di": 323,
      "--": 324,
      "ce": 325,
      "Ġ#": 326,
      "ĊĊĠĠĠ": 327,
      "def": 328,
      "Ġm": 329,
      "un": 330,
      "ge": 331,
      "Ġw": 332,
      "ĊĠĠĠĠĠĠĠĠĠĠĠĠĠĠĠ": 333,
      "),": 334,
      "ent": 335,
      "one": 336,
      "ser": 337,
      "ĠĠĠĠĠĠĠĠ": 338,
      "ig": 339,
      "ype": 340,
      "ue": 341,
      "co": 342,
      "id": 343,
      "ot": 344,
      "ĠN": 345,
      "Ġis": 346,
      "Ġif": 347,
      "ul": 348,
      "Ġ1": 349,
      "',": 350,
      "li": 351,
      "ame": 352,
      "\",": 353,
      "urn": 354,
      "ad": 355,
      "turn": 356,
      "Ġd": 357,
      "ol": 358,
      "el": 359,
      "Ġdef": 360,
      "is": 361,
      "Ġto": 362,
      "ĠT": 363,
      "iz": 364,
      "\"\"": 365,
      "sert": 366,
      "ĊĊĠĠĠĠĠĠĠ": 367,
      "la": 368,
      "ate": 369,
      "Ġ0": 370,
      "ort": 371,
      "str": 372,
      "Ġfor": 373,
      "ĠNone": 374,
      "um": 375,
      "val": 376,
      "ck": 377,
      "Ġ-": 378,
      "Ġreturn": 379,
      "Ġas": 380,
      "__": 381,
      "ode": 382,
      "put": 383,
      "==": 384,
      "est": 385,
      "pt": 386,
      "Ġ[": 387,
      "Ġan": 388,
      "qu": 389,
      "()": 390,
      "type": 391,
      "up": 392,
      "th": 393,
      "ma": 394,
      "il": 395,
      "Ġof": 396,
      "ens": 397,
      "ult": 398,
      "ter": 399,
      "00": 400,
      "ation": 401,
      "rom": 402,
      ">>": 403,
      "Ġ2": 404,
      "._": 405,
      "od": 406,
      "ize": 407,
      "Ġ_": 408,
      "))": 409,
      "con": 410,
      "],": 411,
      "Ġ+": 412,
      "gs": 413,
      "Ġh": 414,
      "Ġex": 415,
      "----": 416,
      "ic": 417,
      "ke": 418,
      "ass": 419,
      "ĠĠĠĠĠĠĠ": 420,
      "Ġe": 421,
      "mport": 422,
      "orch": 423,
      "Ġ`": 424,
      "Ġ*": 425,
      "Ġnot": 426,
      "ĠA": 427,
      "ith": 428,
      "int": 429,
      "Ġand": 430,
      "ĠS": 431,
      "get": 432,
      "ver": 433,
      "ble": 434,
      "cl": 435,
      "to": 436,
      "Ġth": 437,
      "ve": 438,
      "Ġcon": 439,
      "ction": 440,
      "Ġ\"\"\"": 441,
      "att": 442,
      "res": 443,
      "all": 444,
      "name": 445,
      "ror": 446,
      "Ġg": 447,
      "Ġassert": 448,
      "ri": 449,
      "ata": 450,
      "':": 451,
      "Ġx": 452,
      "ran": 453,
      "ensor": 454,
      "Ġ==": 455,
      "orm": 456,
      "vi": 457,
      "ĠC": 458,
      "ht": 459,
      "mb": 460,
      "fig": 461,
      "po": 462,
      "ĊĠĠĠĠĠĠĠĠĠĠĠĠĠĠĠĠĠĠĠ": 463,
      "..": 464,
      "rue": 465,
      "Ġ)": 466,
      "Ġbe": 467,
      "Ġdi": 468,
      "ext": 469,
      "ĊĊ": 470,
      "Ġimport": 471,
      "ĠI": 472,
      "ĠF": 473,
      "args": 474,
      "set": 475,
      "ĊĠĠĠĠĠĠĠĠĠĠĠĠĠĠĠĠĠĠĠĠ": 476,
      "che": 477,
      "ise": 478,
      "der": 479,
      "Ġ{": 480,
      "ption": 481,
      "fi": 482,
      "ha": 483,
      "ta": 484,
      "(\"": 485,
      "Ġor": 486,
      "alse": 487,
      "Er": 488,
      "size": 489,
      "Error": 490,
      "per": 491,
      "\")": 492,
      "Ġco": 493,
      "from": 494,
      "Ġu": 495,
      "Ġde": 496,
      "out": 497,
      "Ġst": 498,
      "Ġtorch": 499,
      "Ġ3": 500,
      "Ġl": 501,
      "mple": 502,
      "am": 503,
      "====": 504,
      "ray": 505,
      "Ġr": 506,
      "Ġwith": 507,
      "assert": 508,
      "Ġtest": 509,
      "ment": 510,
      "ath": 511,
      "end": 512,
      "ase": 513,
      "par": 514,
      "ight": 515,
      "py": 516,
      "ces": 517,
      "atch": 518,
      "ĠP": 519,
      "odel": 520,
      "key": 521,
      "ff": 522,
      "Ġ->": 523,
      "ub": 524,
      "qual": 525,
      "ly": 526,
      "dex": 527,
      "class": 528,
      "Ġ:": 529,
      "ĠD": 530,
      "value": 531,
      "et": 532,
      "list": 533,
      "Ġstr": 534,
      "])": 535,
      "pro": 536,
      "ap": 537,
      "ime": 538,
      "do": 539,
      "Ġ>>": 540,
      "ack": 541,
      "ule": 542,
      "Ġ>>>": 543,
      "('": 544,
      "Ġar": 545,
      "ĠR": 546,
      "den": 547,
      "\":": 548,
      "ask": 549,
      "Ġres": 550,
      "ault": 551,
      "able": 552,
      "ine": 553,
      "Ġ|": 554,
      "and": 555,
      "Ġel": 556,
      "ss": 557,
      "hape": 558,
      "ers": 559,
      "stan": 560,
      "ding": 561,
      "ĠL": 562,
      "raise": 563,
      "**": 564,
      "odule": 565,
      "Ġelse": 566,
      "rap": 567,
      "idden": 568,
      "Ġlo": 569,
      "ect": 570,
      "Ġnp": 571,
      "kw": 572,
      "ates": 573,
      "Ġint": 574,
      "bj": 575,
      "ile": 576,
      "ew": 577,
      "test": 578,
      "')": 579,
      "unction": 580,
      "Ġfrom": 581,
      "ps": 582,
      "ci": 583,
      "nt": 584,
      "cal": 585,
      "form": 586,
      "loat": 587,
      "([": 588,
      "lay": 589,
      "pect": 590,
      ").": 591,
      "ore": 592,
      "valu": 593,
      "Ġme": 594,
      "ĠM": 595,
      "Ġy": 596,
      "Ġout": 597,
      "Ġse": 598,
      "pa": 599,
      "config": 600,
      "ool": 601,
      "array": 602,
      "fo": 603,
      "ition": 604,
      "os": 605,
      "Tensor": 606,
      "ĠO": 607,
      "ca": 608,
      "Ġma": 609,
      "pre": 610,
      "Ġwh": 611,
      "--------": 612,
      "01": 613,
      "ure": 614,
      "Ġ4": 615,
      "ite": 616,
      "ip": 617,
      "us": 618,
      "puts": 619,
      "Ġon": 620,
      "Ġraise": 621,
      "Ġuse": 622,
      "``": 623,
      "ive": 624,
      "values": 625,
      "ĠTrue": 626,
      "ken": 627,
      "Ġpro": 628,
      "ĠB": 629,
      "stance": 630,
      "True": 631,
      "art": 632,
      "In": 633,
      "kwargs": 634,
      "ist": 635,
      "dtype": 636,
      "##": 637,
      "ention": 638,
      "ĠE": 639,
      "Ġ..": 640,
      "Ġsy": 641,
      "Ġv": 642,
      "mbed": 643,
      "ies": 644,
      "ĠFalse": 645,
      "Ġthat": 646,
      "pr": 647,
      "im": 648,
      "ĠThe": 649,
      "pected": 650,
      "states": 651,
      "tr": 652,
      "ĠG": 653,
      "ial": 654,
      "ctor": 655,
      "Ġwe": 656,
      "eg": 657,
      "ms": 658,
      "ho": 659,
      "age": 660,
      "time": 661,
      "Ġname": 662,
      "sion": 663,
      "data": 664,
      "Ġun": 665,
      "torch": 666,
      "None": 667,
      "Ġ``": 668,
      "init": 669,
      "Ġit": 670,
      "text": 671,
      "raph": 672,
      "ard": 673,
      "code": 674,
      "mage": 675,
      "\"\"\"": 676,
      "=\"": 677,
      "Ġdtype": 678,
      "Ġ@": 679,
      "Ġal": 680,
      "attention": 681,
      "thod": 682,
      "ence": 683,
      "mask": 684,
      "Ġ__": 685,
      "num": 686,
      "ator": 687,
      "Ġnum": 688,
      "Ġby": 689,
      "op": 690,
      "uple": 691,
      "len": 692,
      "ðŁ": 693,
      "Ġare": 694,
      "Ġ**": 695,
      "ptional": 696,
      "False": 697,
      "vice": 698,
      "//": 699,
      "Ġtype": 700,
      "iv": 701,
      "ĊĠĠĠĠĠĠĠĠĠĠĠĠĠĠĠĠĠĠĠĠĠĠĠ": 702,
      "Ġlist": 703,
      "ill": 704,
      "rans": 705,
      "path": 706,
      "Con": 707,
      "IN": 708,
      "head": 709,
      "app": 710,
      "Ġk": 711,
      "ample": 712,
      "port": 713,
      "__(": 714,
      "cess": 715,
      "Ġdo": 716,
      "tra": 717,
      "ener": 718,
      "ĠW": 719,
      "dim": 720,
      "low": 721,
      "64": 722,
      "mpy": 723,
      "Ġresult": 724,
      "rame": 725,
      "bject": 726,
      "ded": 727,
      "ust": 728,
      "instance": 729,
      "so": 730,
      "ag": 731,
      "Ġthis": 732,
      "index": 733,
      "unc": 734,
      "shape": 735,
      "Ġvalue": 736,
      "we": 737,
      "but": 738,
      "da": 739,
      "Val": 740,
      "hidden": 741,
      "ds": 742,
      "[\"": 743,
      "\"]": 744,
      "que": 745,
      "node": 746,
      "ated": 747,
      "roup": 748,
      "ant": 749,
      "Ġen": 750,
      "Equal": 751,
      "nel": 752,
      "Ġ5": 753,
      "Ġla": 754,
      "ty": 755,
      "attr": 756,
      "Ġcl": 757,
      "col": 758,
      "mo": 759,
      "ary": 760,
      "sc": 761,
      "Ġconfig": 762,
      "ign": 763,
      "Ġinput": 764,
      "Ġso": 765,
      "Ġpre": 766,
      ".__": 767,
      "Ġ...": 768,
      "Ġexpected": 769,
      "embed": 770,
      "om": 771,
      "equal": 772,
      "Ġpar": 773,
      "dict": 774,
      "coder": 775,
      "12": 776,
      "10": 777,
      "Ġ<": 778,
      "========": 779,
      "ft": 780,
      "ity": 781,
      "Ġlen": 782,
      "Ġget": 783,
      "url": 784,
      "sp": 785,
      "lic": 786,
      "assertEqual": 787,
      "Ġisinstance": 788,
      "ĠĠĠĠĠĠĠĠĠĠĠĠĠĠĠĠ": 789,
      "Type": 790,
      "Ġdata": 791,
      "yn": 792,
      "Ġsup": 793,
      "ðŁļ": 794,
      "ĠU": 795,
      "Value": 796,
      "ðŁļ¨": 797,
      "fa": 798,
      "default": 799,
      "ab": 800,
      "ry": 801,
      "TE": 802,
      "com": 803,
      "ðŁļ¨ðŁļ¨": 804,
      "file": 805,
      "red": 806,
      "input": 807,
      "():": 808,
      "ĊĊĠĠĠĠĠĠĠĠĠĠĠ": 809,
      "module": 810,
      "log": 811,
      "Ġbool": 812,
      "Ġcan": 813,
      "arg": 814,
      "ther": 815,
      "ber": 816,
      "sed": 817,
      "},": 818,
      "ns": 819,
      "lock": 820,
      "Ġkey": 821,
      "ir": 822,
      "Ġcomp": 823,
      "import": 824,
      "model": 825,
      "ids": 826,
      "Ġset": 827,
      "layer": 828,
      "ere": 829,
      "://": 830,
      "Ġmodel": 831,
      "mat": 832,
      "np": 833,
      "te": 834,
      "Ġdefault": 835,
      "comp": 836,
      "load": 837,
      "Ġran": 838,
      "wor": 839,
      "gth": 840,
      "ast": 841,
      "peci": 842,
      "ĠRe": 843,
      "add": 844,
      "32": 845,
      "pos": 846,
      "ĠIn": 847,
      "ameter": 848,
      "ON": 849,
      "lif": 850,
      "bo": 851,
      "ug": 852,
      "tt": 853,
      "not": 854,
      "\"),": 855,
      "Ġoutput": 856,
      "ep": 857,
      "ined": 858,
      "if": 859,
      "vide": 860,
      "uld": 861,
      ":`": 862,
      "valid": 863,
      "Ġhidden": 864,
      "output": 865,
      "back": 866,
      "sub": 867,
      "Ġch": 868,
      "ind": 869,
      "Ġcol": 870,
      "ari": 871,
      "Ġz": 872,
      "ĠH": 873,
      "ument": 874,
      "Ġfunction": 875,
      "ning": 876,
      "ow": 877,
      "rent": 878,
      "ValueError": 879,
      "qui": 880,
      "dd": 881,
      "read": 882,
      "heck": 883,
      "Ġle": 884,
      "float": 885,
      "version": 886,
      "date": 887,
      "tensor": 888,
      "info": 889,
      "Ġnode": 890,
      "max": 891,
      "ide": 892,
      "his": 893,
      "error": 894,
      "Ġ%": 895,
      "Ġhas": 896,
      "pp": 897,
      "Ġwill": 898,
      "und": 899,
      "Ġro": 900,
      "sy": 901,
      "rix": 902,
      "Ġarg": 903,
      "Ġexp": 904,
      "16": 905,
      "bel": 906,
      "02": 907,
      "eat": 908,
      "ĠIf": 909,
      "state": 910,
      "token": 911,
      "Ġ\\": 912,
      "param": 913,
      "exp": 914,
      "append": 915,
      "'),": 916,
      "ay": 917,
      "gra": 918,
      "ix": 919,
      "='": 920,
      "eld": 921,
      "its": 922,
      "Ġall": 923,
      "Ġfile": 924,
      "Ġelif": 925,
      "fer": 926,
      "Ġnew": 927,
      "Ġ>": 928,
      "ave": 929,
      "`,": 930,
      "norm": 931,
      "func": 932,
      "ations": 933,
      "Re": 934,
      "ree": 935,
      "for": 936,
      "AL": 937,
      "ils": 938,
      "ward": 939,
      "Ġlog": 940,
      "ok": 941,
      "Ġpy": 942,
      "sing": 943,
      "weight": 944,
      "ny": 945,
      "string": 946,
      "((": 947,
      "act": 948,
      "Ġ('": 949,
      "arget": 950,
      "ark": 951,
      "iter": 952,
      "min": 953,
      "lace": 954,
      "ative": 955,
      "unt": 956,
      "lib": 957,
      "####": 958,
      "Ġj": 959,
      "ges": 960,
      "Ġindex": 961,
      "Ġat": 962,
      "use": 963,
      "ffer": 964,
      "Ġobject": 965,
      "cept": 966,
      "Ġ6": 967,
      "lement": 968,
      "quence": 969,
      "RE": 970,
      "inter": 971,
      "(-": 972,
      "Ex": 973,
      "Ġtuple": 974,
      "gn": 975,
      "by": 976,
      "xis": 977,
      "0000": 978,
      "urce": 979,
      "lable": 980,
      "line": 981,
      "cor": 982,
      "du": 983,
      "ĠEx": 984,
      "AT": 985,
      "graph": 986,
      "em": 987,
      "point": 988,
      "reate": 989,
      "uto": 990,
      "Ġclass": 991,
      "Ġsub": 992,
      "ense": 993,
      "Ġsho": 994,
      "ĠThis": 995,
      "Ġmax": 996,
      "99": 997,
      "Ġpos": 998,
      "dow": 999,
      "Ġ(`": 1000,
      "inal": 1001,
      "Ġfloat": 1002,
      "thon": 1003,
      "ute": 1004,
      "sh": 1005,
      "result": 1006,
      "\\\\": 1007,
      "Ġ.": 1008,
      "bu": 1009,
      "quest": 1010,
      "ĠSe": 1011,
      "11": 1012,
      "device": 1013,
      "(),": 1014,
      "ension": 1015,
      "Ġ/": 1016,
      "group": 1017,
      "mbol": 1018,
      "Ġmethod": 1019,
      "with": 1020,
      "ong": 1021,
      "ptions": 1022,
      "stri": 1023,
      "idx": 1024,
      "cale": 1025,
      "Ġother": 1026,
      "]:": 1027,
      "video": 1028,
      "fix": 1029,
      "check": 1030,
      "htt": 1031,
      "Ġtensor": 1032,
      "Ġsympy": 1033,
      "Ġarray": 1034,
      "format": 1035,
      "vel": 1036,
      "Ġdf": 1037,
      "idth": 1038,
      "Ġdim": 1039,
      "ision": 1040,
      "25": 1041,
      "ne": 1042,
      "ribut": 1043,
      "rt": 1044,
      "arning": 1045,
      "Ġ8": 1046,
      "Ġcheck": 1047,
      "pon": 1048,
      "IT": 1049,
      "method": 1050,
      "ally": 1051,
      "ang": 1052,
      "uk": 1053,
      "Ġvalues": 1054,
      "ww": 1055,
      "Ġshape": 1056,
      "dom": 1057,
      "ransform": 1058,
      "Ġdict": 1059,
      "ias": 1060,
      "length": 1061,
      "ET": 1062,
      "Ġused": 1063,
      "::": 1064,
      "atrix": 1065,
      "Ġmodule": 1066,
      "function": 1067,
      "Ġnn": 1068,
      "Ġatt": 1069,
      "ST": 1070,
      "Ġspeci": 1071,
      "Ġno": 1072,
      "ach": 1073,
      "Ġshould": 1074,
      "ernel": 1075,
      "ich": 1076,
      "pi": 1077,
      "Ġper": 1078,
      "vert": 1079,
      "!=": 1080,
      "mbda": 1081,
      "place": 1082,
      "EN": 1083,
      "']": 1084,
      "izer": 1085,
      "Ġpo": 1086,
      "ield": 1087,
      "Ġpass": 1088,
      "tain": 1089,
      "cur": 1090,
      "['": 1091,
      "ized": 1092,
      ".,": 1093,
      "dir": 1094,
      "Ġ(\"": 1095,
      "Ġ!=": 1096,
      "Ġsize": 1097,
      "ameters": 1098,
      "Ġqu": 1099,
      "ac": 1100,
      "())": 1101,
      "parse": 1102,
      "row": 1103,
      "Ġxp": 1104,
      "emp": 1105,
      "----------------": 1106,
      "wr": 1107,
      "Ġ7": 1108,
      "`.": 1109,
      "kens": 1110,
      "ĠDe": 1111,
      "reg": 1112,
      "cache": 1113,
      "[:": 1114,
      "ER": 1115,
      "Ġtoken": 1116,
      "kip": 1117,
      "Ġimage": 1118,
      "ĠV": 1119,
      "].": 1120,
      "mplement": 1121,
      "scri": 1122,
      "Ġtry": 1123,
      "Ġdevice": 1124,
      "ures": 1125,
      "ĠK": 1126,
      "Pro": 1127,
      "tern": 1128,
      "clo": 1129,
      "ts": 1130,
      "Ġq": 1131,
      "Model": 1132,
      "dices": 1133,
      "Ġne": 1134,
      "ĠValueError": 1135,
      "Ġid": 1136,
      "tes": 1137,
      "Ġtime": 1138,
      "pace": 1139,
      "ml": 1140,
      "Ġargs": 1141,
      "]]": 1142,
      "Ġrange": 1143,
      "doc": 1144,
      "ĊĠĠĠĠĠĠĠĠĠĠĠĠĠĠĠĠĠĠĠĠĠĠĠĠĠĠĠĠ": 1145,
      "ory": 1146,
      "Ġattention": 1147,
      "df": 1148,
      "annel": 1149,
      "mit": 1150,
      ")),": 1151,
      "her": 1152,
      "view": 1153,
      "dings": 1154,
      "utils": 1155,
      "ou": 1156,
      "si": 1157,
      "nd": 1158,
      "Ġmust": 1159,
      "Ġwhen": 1160,
      "map": 1161,
      "ref": 1162,
      "main": 1163,
      "inputs": 1164,
      "Ġmask": 1165,
      "Ġwhich": 1166,
      "ery": 1167,
      "base": 1168,
      "14": 1169,
      "15": 1170,
      "start": 1171,
      "ero": 1172,
      "eries": 1173,
      "})": 1174,
      "stru": 1175,
      "OR": 1176,
      "batch": 1177,
      "Ġexcept": 1178,
      "mark": 1179,
      "pl": 1180,
      "ild": 1181,
      "Ġsupport": 1182,
      "be": 1183,
      "ses": 1184,
      "ariable": 1185,
      "Test": 1186,
      "ream": 1187,
      "av": 1188,
      "Ġgener": 1189,
      "ak": 1190,
      "AR": 1191,
      "04": 1192,
      "De": 1193,
      "ache": 1194,
      "vent": 1195,
      "ĠReturn": 1196,
      "Ġ[]": 1197,
      "Ġcont": 1198,
      "Ġmatch": 1199,
      "nn": 1200,
      "image": 1201,
      "Ġweight": 1202,
      "new": 1203,
      "ðŁļ¨ðŁļ¨ðŁļ¨ðŁļ¨": 1204,
      "frame": 1205,
      "stribut": 1206,
      "ull": 1207,
      "rect": 1208,
      "lin": 1209,
      "hel": 1210,
      "sq": 1211,
      "stat": 1212,
      "Ġhave": 1213,
      "Ġonly": 1214,
      "amp": 1215,
      "'t": 1216,
      "LE": 1217,
      "Ġpath": 1218,
      "jo": 1219,
      "Ġign": 1220,
      "Config": 1221,
      "(?": 1222,
      "count": 1223,
      "grad": 1224,
      "ĊĠĠĠĠĠĠĠĠĠĠĠĠĠĠĠĠĠĠĠĠĠĠĠĠĠĠĠ": 1225,
      "'s": 1226,
      "like": 1227,
      "ĠAny": 1228,
      "chema": 1229,
      "Ġtra": 1230,
      ")*": 1231,
      "lect": 1232,
      "Ġcode": 1233,
      "Ġop": 1234,
      "ĠLic": 1235,
      "ception": 1236,
      "Frame": 1237,
      "https": 1238,
      "Ġ[\"": 1239,
      "feat": 1240,
      "optional": 1241,
      "ĠNot": 1242,
      "led": 1243,
      "pec": 1244,
      "obj": 1245,
      "ler": 1246,
      "Ġtm": 1247,
      "ateg": 1248,
      "ĊĠ": 1249,
      "22": 1250,
      "33": 1251,
      "~~": 1252,
      "Ġstring": 1253,
      "Ġsuper": 1254,
      "Ġhtt": 1255,
      "Ġos": 1256,
      "umpy": 1257,
      "only": 1258,
      "names": 1259,
      "clu": 1260,
      "St": 1261,
      "call": 1262,
      "Ġup": 1263,
      "ĠQ": 1264,
      "nan": 1265,
      "pol": 1266,
      "mm": 1267,
      "Ġcur": 1268,
      "fil": 1269,
      "process": 1270,
      "no": 1271,
      "PE": 1272,
      "aise": 1273,
      "bels": 1274,
      "ual": 1275,
      "ped": 1276,
      "are": 1277,
      "Ġstate": 1278,
      "Ġtext": 1279,
      "Ġinputs": 1280,
      "Ġfa": 1281,
      "ĊĠĠĠĠĠ": 1282,
      "56": 1283,
      "Ġinter": 1284,
      "Ġbo": 1285,
      "Ar": 1286,
      "block": 1287,
      "ical": 1288,
      "Ġstart": 1289,
      "DE": 1290,
      "ey": 1291,
      "================": 1292,
      "Ġcall": 1293,
      "Module": 1294,
      "Ġargument": 1295,
      "Ġser": 1296,
      "ization": 1297,
      "Ġadd": 1298,
      "Ġposition": 1299,
      "ec": 1300,
      "ponse": 1301,
      "Ġ10": 1302,
      "34": 1303,
      "position": 1304,
      "Ġbu": 1305,
      "Ġmay": 1306,
      "Ġpad": 1307,
      "adata": 1308,
      "IE": 1309,
      "Ġac": 1310,
      "19": 1311,
      "lob": 1312,
      ".\"\"\"": 1313,
      "fn": 1314,
      "close": 1315,
      "outputs": 1316,
      "ous": 1317,
      "ĠĠĠĠĠĠ": 1318,
      "ng": 1319,
      "Ġerror": 1320,
      "Ġ'\\": 1321,
      "son": 1322,
      "aises": 1323,
      "Ġ12": 1324,
      "Ġbase": 1325,
      "ataFrame": 1326,
      "Ġbut": 1327,
      "loc": 1328,
      "Ġnumber": 1329,
      "ĠĠĠĠĠ": 1330,
      "ll": 1331,
      "ĠAr": 1332,
      "var": 1333,
      "Ġ+=": 1334,
      "Ġapp": 1335,
      "cls": 1336,
      "Ġone": 1337,
      "su": 1338,
      "prec": 1339,
      "ange": 1340,
      "itle": 1341,
      "eger": 1342,
      "has": 1343,
      "TER": 1344,
      "Function": 1345,
      "000": 1346,
      "ĠOptional": 1347,
      "84": 1348,
      "Ġignore": 1349,
      "ĠLicense": 1350,
      "ssage": 1351,
      "Ġinit": 1352,
      "ĠType": 1353,
      "sent": 1354,
      "Ġ}": 1355,
      "Ġrequi": 1356,
      "ribute": 1357,
      "bs": 1358,
      "\"],": 1359,
      "coding": 1360,
      "Ġover": 1361,
      "ING": 1362,
      "cont": 1363,
      "ulti": 1364,
      "Ġany": 1365,
      "height": 1366,
      "expr": 1367,
      "ress": 1368,
      "amples": 1369,
      "Ġwor": 1370,
      "right": 1371,
      "stra": 1372,
      "pytest": 1373,
      "ai": 1374,
      "yp": 1375,
      "Ġformat": 1376,
      "word": 1377,
      "ĠCo": 1378,
      "AS": 1379,
      "write": 1380,
      "umn": 1381,
      "join": 1382,
      "sum": 1383,
      "ync": 1384,
      "range": 1385,
      "Ġline": 1386,
      "201": 1387,
      "Ġtarget": 1388,
      "().": 1389,
      "work": 1390,
      "ĠReturns": 1391,
      "fied": 1392,
      "indow": 1393,
      "Ġback": 1394,
      "Ġcase": 1395,
      "Ġeach": 1396,
      "Ġgraph": 1397,
      "ptim": 1398,
      "ĠCon": 1399,
      "ION": 1400,
      "03": 1401,
      "Par": 1402,
      "mplex": 1403,
      "copy": 1404,
      "Ġkwargs": 1405,
      "iven": 1406,
      "perty": 1407,
      "13": 1408,
      "75": 1409,
      "irst": 1410,
      "ging": 1411,
      "wise": 1412,
      "bool": 1413,
      "cket": 1414,
      "Ġaxis": 1415,
      "Di": 1416,
      "af": 1417,
      "ĠJ": 1418,
      "ĠSee": 1419,
      "Ġend": 1420,
      "ger": 1421,
      "order": 1422,
      "Index": 1423,
      "Ġhead": 1424,
      "Ġversion": 1425,
      "types": 1426,
      "match": 1427,
      "05": 1428,
      "embeds": 1429,
      "Co": 1430,
      "raises": 1431,
      "req": 1432,
      "channel": 1433,
      "Ġpr": 1434,
      "24": 1435,
      "gener": 1436,
      "rop": 1437,
      "oo": 1438,
      "extra": 1439,
      "ference": 1440,
      "Ġ),": 1441,
      "assertR": 1442,
      "Ġoptional": 1443,
      "spl": 1444,
      "Ġmin": 1445,
      "ance": 1446,
      "AP": 1447,
      "perator": 1448,
      "umns": 1449,
      "ME": 1450,
      "dio": 1451,
      "Float": 1452,
      "lat": 1453,
      "ression": 1454,
      "ĠTensor": 1455,
      "Tra": 1456,
      "Ġnon": 1457,
      "ati": 1458,
      "assertRaises": 1459,
      "tuple": 1460,
      "Ġ--------": 1461,
      "Ġorder": 1462,
      "Ġpytest": 1463,
      ")))": 1464,
      "IC": 1465,
      "uration": 1466,
      "Ġgroup": 1467,
      "AN": 1468,
      "clude": 1469,
      "Ġorig": 1470,
      "({": 1471,
      "09": 1472,
      "msg": 1473,
      "object": 1474,
      "over": 1475,
      "level": 1476,
      "edge": 1477,
      "Ġpart": 1478,
      "cy": 1479,
      "sign": 1480,
      "na": 1481,
      "Ġusing": 1482,
      "ister": 1483,
      "unk": 1484,
      "pad": 1485,
      "ĠDataFrame": 1486,
      "Ġlambda": 1487,
      "Ġ]": 1488,
      "tokens": 1489,
      "Ġmo": 1490,
      "proj": 1491,
      "Ġ9": 1492,
      "tadata": 1493,
      "88": 1494,
      ")]": 1495,
      "ved": 1496,
      "atche": 1497,
      "(*": 1498,
      "ename": 1499,
      "17": 1500,
      "xes": 1501,
      "Ġfirst": 1502,
      "auto": 1503,
      "allable": 1504,
      "utput": 1505,
      "Ġ):": 1506,
      "calar": 1507,
      "arch": 1508,
      "ĠPy": 1509,
      "item": 1510,
      "fore": 1511,
      "########": 1512,
      "Ġnorm": 1513,
      "[-": 1514,
      "Ġnx": 1515,
      "cre": 1516,
      "nodes": 1517,
      "Ġ},": 1518,
      "medi": 1519,
      "mode": 1520,
      "ĠUn": 1521,
      "ational": 1522,
      "Ġsame": 1523,
      "math": 1524,
      "udio": 1525,
      "Name": 1526,
      "split": 1527,
      "`):": 1528,
      "Ġdoes": 1529,
      "ints": 1530,
      "params": 1531,
      "Un": 1532,
      "().__": 1533,
      "ner": 1534,
      "stant": 1535,
      "layers": 1536,
      "ution": 1537,
      "Ġcor": 1538,
      "embeddings": 1539,
      "66": 1540,
      "vo": 1541,
      "Lo": 1542,
      "run": 1543,
      "wrap": 1544,
      "Ġvideo": 1545,
      "Ġpa": 1546,
      "del": 1547,
      "Ġ{}": 1548,
      "uth": 1549,
      "rid": 1550,
      "cat": 1551,
      ")/": 1552,
      "CK": 1553,
      "07": 1554,
      "Ġsequence": 1555,
      "Ġrun": 1556,
      "ĊĠĠĠĠĠĠĠĠĠĠ": 1557,
      "18": 1558,
      "return": 1559,
      "factor": 1560,
      "asses": 1561,
      "cast": 1562,
      "random": 1563,
      "width": 1564,
      "rc": 1565,
      "heads": 1566,
      "_(": 1567,
      "Ġblock": 1568,
      "Base": 1569,
      "mages": 1570,
      "Ġiter": 1571,
      "expected": 1572,
      "Ġcontain": 1573,
      "lobal": 1574,
      "\\.": 1575,
      "title": 1576,
      "wo": 1577,
      "Ġ{'": 1578,
      "SE": 1579,
      "tx": 1580,
      "cond": 1581,
      "ead": 1582,
      "Ġunder": 1583,
      "mory": 1584,
      "Ġcls": 1585,
      "ultip": 1586,
      "Ġtyp": 1587,
      "comm": 1588,
      "features": 1589,
      "python": 1590,
      "Res": 1591,
      "of": 1592,
      "target": 1593,
      "xp": 1594,
      "Ġ16": 1595,
      "ctions": 1596,
      "property": 1597,
      "CH": 1598,
      "ametr": 1599,
      "lass": 1600,
      "Ġlayer": 1601,
      "foo": 1602,
      "Ġcurrent": 1603,
      "Se": 1604,
      "Ġforward": 1605,
      "Ġstat": 1606,
      "ĠSeries": 1607,
      "Ġhand": 1608,
      "Ġelement": 1609,
      "raw": 1610,
      "Ġyou": 1611,
      "verse": 1612,
      "indices": 1613,
      "pout": 1614,
      "alf": 1615,
      "series": 1616,
      "([[": 1617,
      "Ġdate": 1618,
      "Int": 1619,
      "org": 1620,
      "conv": 1621,
      "skip": 1622,
      "create": 1623,
      "ropout": 1624,
      "Ġfil": 1625,
      "Ġrequest": 1626,
      "Ġact": 1627,
      "Ġinst": 1628,
      "ĠTest": 1629,
      "sqrt": 1630,
      "trans": 1631,
      "context": 1632,
      "scale": 1633,
      "Ġneed": 1634,
      "YPE": 1635,
      "Ġextra": 1636,
      "Output": 1637,
      "www": 1638,
      "move": 1639,
      "off": 1640,
      "items": 1641,
      "ĠFor": 1642,
      "Ġurl": 1643,
      "Ġvalid": 1644,
      "ynam": 1645,
      "Info": 1646,
      "Ġsh": 1647,
      "eff": 1648,
      "upport": 1649,
      "Set": 1650,
      "55": 1651,
      "ents": 1652,
      "ments": 1653,
      "Ġhttps": 1654,
      "ify": 1655,
      "struct": 1656,
      "other": 1657,
      "Ġms": 1658,
      "Ġsys": 1659,
      "=[": 1660,
      "ait": 1661,
      "LO": 1662,
      "}\"": 1663,
      "tring": 1664,
      "Ġembed": 1665,
      "IG": 1666,
      "'\\": 1667,
      "the": 1668,
      "ĠX": 1669,
      "UT": 1670,
      "Ġgiven": 1671,
      "print": 1672,
      "ĠPar": 1673,
      "part": 1674,
      "ular": 1675,
      "mplemented": 1676,
      "36": 1677,
      "table": 1678,
      "weights": 1679,
      "inf": 1680,
      "yle": 1681,
      "ld": 1682,
      "89": 1683,
      "20": 1684,
      "=(": 1685,
      "pack": 1686,
      "abc": 1687,
      "quant": 1688,
      "Ġreg": 1689,
      "cu": 1690,
      "FloatTensor": 1691,
      "ron": 1692,
      "old": 1693,
      "Ġbatch": 1694,
      "Ġcopy": 1695,
      "Ġsu": 1696,
      "Ġ&": 1697,
      "Ġsin": 1698,
      "kernel": 1699,
      "Ġdistribut": 1700,
      "user": 1701,
      "cs": 1702,
      "Ġwr": 1703,
      "ID": 1704,
      "76": 1705,
      "limit": 1706,
      "parametr": 1707,
      "root": 1708,
      "mod": 1709,
      "Ġnames": 1710,
      "keys": 1711,
      "ailable": 1712,
      "Ġallow": 1713,
      "hand": 1714,
      "ics": 1715,
      "api": 1716,
      "eros": 1717,
      "options": 1718,
      "ustom": 1719,
      "\"):": 1720,
      "nection": 1721,
      "lean": 1722,
      "ĊĠĠĠĠĠĠĠĠĠ": 1723,
      "Ġ['": 1724,
      "gen": 1725,
      "Ġpd": 1726,
      "Ġuser": 1727,
      "Ġlast": 1728,
      "olve": 1729,
      "eps": 1730,
      "\\\\.": 1731,
      "pop": 1732,
      "lease": 1733,
      "ze": 1734,
      "ETTER": 1735,
      "my": 1736,
      "normal": 1737,
      "Ġmode": 1738,
      "(_": 1739,
      "Ġmsg": 1740,
      "Ġlength": 1741,
      "logits": 1742,
      "Line": 1743,
      "ound": 1744,
      "06": 1745,
      "xy": 1746,
      "stamp": 1747,
      "mul": 1748,
      "Ġwork": 1749,
      "wh": 1750,
      "ĠLETTER": 1751,
      "Ġ{\"": 1752,
      "axis": 1753,
      "ced": 1754,
      "Ġent": 1755,
      "late": 1756,
      "ĠAs": 1757,
      "Ġcreate": 1758,
      "ĠZ": 1759,
      "ĠArgs": 1760,
      "vision": 1761,
      "present": 1762,
      "ody": 1763,
      "Ġsource": 1764,
      "bar": 1765,
      "Pre": 1766,
      "Ġright": 1767,
      "element": 1768,
      "``.": 1769,
      "OT": 1770,
      "bias": 1771,
      "face": 1772,
      "err": 1773,
      "left": 1774,
      "unit": 1775,
      "nx": 1776,
      "schema": 1777,
      "attn": 1778,
      "Ġprocess": 1779,
      "Ġexpr": 1780,
      "Ġprint": 1781,
      "parametrize": 1782,
      "Ġmake": 1783,
      "ie": 1784,
      "Ġtyping": 1785,
      "now": 1786,
      "Ġfunc": 1787,
      "local": 1788,
      ".\"": 1789,
      "fault": 1790,
      "update": 1791,
      "meta": 1792,
      "down": 1793,
      "channels": 1794,
      "ĊĊĠĠĠĠĠĠĠĠĠĠĠĠĠĠĠ": 1795,
      "zero": 1796,
      "74": 1797,
      "Ġwhere": 1798,
      "List": 1799,
      "ĠWe": 1800,
      "non": 1801,
      "post": 1802,
      "keep": 1803,
      "core": 1804,
      "Ġdefaults": 1805,
      "andas": 1806,
      "To": 1807,
      "UR": 1808,
      "pha": 1809,
      "ixel": 1810,
      "iod": 1811,
      "Ġmore": 1812,
      "mbols": 1813,
      "arnings": 1814,
      "ert": 1815,
      "Ġkernel": 1816,
      "source": 1817,
      "mis": 1818,
      "imp": 1819,
      "Ġsq": 1820,
      "ager": 1821,
      "stem": 1822,
      "man": 1823,
      "OD": 1824,
      "29": 1825,
      "Ġcache": 1826,
      "vector": 1827,
      "Ġinto": 1828,
      "Lay": 1829,
      "CT": 1830,
      "={": 1831,
      "izes": 1832,
      "Py": 1833,
      "can": 1834,
      "none": 1835,
      "fier": 1836,
      "Ġoff": 1837,
      "real": 1838,
      "Ġcontext": 1839,
      "lient": 1840,
      "08": 1841,
      "Ġ<=": 1842,
      "delta": 1843,
      "Ġobj": 1844,
      "sl": 1845,
      "descri": 1846,
      "]])": 1847,
      "asarray": 1848,
      "Ġdiffer": 1849,
      "Ġloss": 1850,
      "*,": 1851,
      "ĠY": 1852,
      "Ġyield": 1853,
      "pri": 1854,
      "Ġthen": 1855,
      "Ġ32": 1856,
      "Ġwidth": 1857,
      "IL": 1858,
      "Ġcontin": 1859,
      "35": 1860,
      "atches": 1861,
      "pose": 1862,
      "aten": 1863,
      "ymbol": 1864,
      "Ġread": 1865,
      "Ġcal": 1866,
      "Ġsign": 1867,
      "speci": 1868,
      "ĠĠĠĠĠĠĠĠĠĠĠĠĠĠĠĠĠĠĠĠĠĠĠĠ": 1869,
      "attern": 1870,
      "Ġattn": 1871,
      "Any": 1872,
      "patch": 1873,
      "Ġquery": 1874,
      "stack": 1875,
      "reak": 1876,
      "spec": 1877,
      "mal": 1878,
      "ess": 1879,
      "ross": 1880,
      "offset": 1881,
      "wer": 1882,
      "imum": 1883,
      "tri": 1884,
      "egr": 1885,
      "Ġoutputs": 1886,
      "[:,": 1887,
      "pend": 1888,
      "bin": 1889,
      "bytes": 1890,
      "ðŁļ¨ðŁļ¨ðŁļ¨ðŁļ¨ðŁļ¨ðŁļ¨ðŁļ¨ðŁļ¨": 1891,
      "ible": 1892,
      "ling": 1893,
      "Ġpi": 1894,
      "oly": 1895,
      "Ġdimension": 1896,
      "mt": 1897,
      "apt": 1898,
      "TypeError": 1899,
      "json": 1900,
      "ored": 1901,
      "ingle": 1902,
      "For": 1903,
      "make": 1904,
      "rank": 1905,
      "register": 1906,
      "Ġfeat": 1907,
      "Ġrow": 1908,
      "Ġpast": 1909,
      "Att": 1910,
      "'))": 1911,
      "\"{": 1912,
      "Ġ],": 1913,
      "Ġspecif": 1914,
      "labels": 1915,
      "Ġparam": 1916,
      "igh": 1917,
      "decoder": 1918,
      "Ġidx": 1919,
      "ors": 1920,
      "less": 1921,
      "39": 1922,
      "lags": 1923,
      "Ġ//": 1924,
      "79": 1925,
      "ature": 1926,
      "(?:": 1927,
      "ices": 1928,
      "The": 1929,
      "Ġpadding": 1930,
      "ĊĠĠĠĠĠĠĠĠĠĠĠĠĠ": 1931,
      "][": 1932,
      "cri": 1933,
      "iled": 1934,
      "AB": 1935,
      "points": 1936,
      "Ġthan": 1937,
      "Ġmatrix": 1938,
      "edges": 1939,
      "Ġtransform": 1940,
      "prefix": 1941,
      "net": 1942,
      "pu": 1943,
      "Ġlin": 1944,
      "Ġnodes": 1945,
      "replace": 1946,
      "orig": 1947,
      "lot": 1948,
      "86": 1949,
      "number": 1950,
      "ren": 1951,
      "fl": 1952,
      "helper": 1953,
      "Norm": 1954,
      "cent": 1955,
      "ility": 1956,
      "Ġgetattr": 1957,
      "ord": 1958,
      "IS": 1959,
      "UL": 1960,
      "Ġ----": 1961,
      "lice": 1962,
      "pth": 1963,
      "rel": 1964,
      "Ġframe": 1965,
      "Ġchar": 1966,
      "mpt": 1967,
      "Ġad": 1968,
      "itional": 1969,
      "char": 1970,
      "]),": 1971,
      "ication": 1972,
      "disp": 1973,
      "support": 1974,
      "sin": 1975,
      "olution": 1976,
      "numpy": 1977,
      "encoder": 1978,
      "Ġsort": 1979,
      "200": 1980,
      "redu": 1981,
      "]+": 1982,
      "otal": 1983,
      "Ġencoder": 1984,
      "bug": 1985,
      "\"])": 1986,
      "ting": 1987,
      "duct": 1988,
      "Layer": 1989,
      "Ġ>=": 1990,
      "Ġmp": 1991,
      "wait": 1992,
      "26": 1993,
      "hether": 1994,
      "tag": 1995,
      "md": 1996,
      "Ġtemp": 1997,
      "query": 1998,
      "round": 1999,
      "Ġnumpy": 2000,
      "~~~~": 2001,
      "85": 2002,
      "fir": 2003,
      "''": 2004,
      "Ġdel": 2005,
      "ining": 2006,
      "]],": 2007,
      "itive": 2008,
      "ĠAl": 2009,
      "ĠExamples": 2010,
      "Ġgra": 2011,
      "ph": 2012,
      "Ġinstance": 2013,
      "Col": 2014,
      "ell": 2015,
      "ĠMatrix": 2016,
      "NA": 2017,
      "Ġlabels": 2018,
      "page": 2019,
      "Ġfol": 2020,
      "oth": 2021,
      "Array": 2022,
      "trained": 2023,
      "RO": 2024,
      "classes": 2025,
      "Ġinitial": 2026,
      "ategor": 2027,
      "44": 2028,
      "seq": 2029,
      "poly": 2030,
      "Ġoriginal": 2031,
      "std": 2032,
      "ĠTypeError": 2033,
      "ake": 2034,
      "AA": 2035,
      "mut": 2036,
      "backend": 2037,
      "Ġtokens": 2038,
      "77": 2039,
      "Is": 2040,
      "dropout": 2041,
      "zeros": 2042,
      "Graph": 2043,
      "ops": 2044,
      "eq": 2045,
      "Ġcontinue": 2046,
      "Ġ--": 2047,
      "repr": 2048,
      "Ġconvert": 2049,
      "Ġdatetime": 2050,
      "En": 2051,
      "Ġarguments": 2052,
      "100": 2053,
      "IP": 2054,
      "ributes": 2055,
      "empty": 2056,
      "stream": 2057,
      "Ġload": 2058,
      "Ġweights": 2059,
      "MA": 2060,
      "temp": 2061,
      "Ġlocal": 2062,
      "fter": 2063,
      "assed": 2064,
      "egative": 2065,
      "ither": 2066,
      "Ġsee": 2067,
      "Ġscale": 2068,
      "dent": 2069,
      "metr": 2070,
      "Ġwas": 2071,
      "Not": 2072,
      "Ġsome": 2073,
      "ĠBase": 2074,
      "sort": 2075,
      "inite": 2076,
      "ax": 2077,
      "ential": 2078,
      "âĶ": 2079,
      "any": 2080,
      "simple": 2081,
      "reshape": 2082,
      "Ġwhile": 2083,
      "transform": 2084,
      "RA": 2085,
      "cle": 2086,
      "requi": 2087,
      "elds": 2088,
      "uture": 2089,
      "Ġtrans": 2090,
      "ĠDefault": 2091,
      "Ġmessage": 2092,
      "UN": 2093,
      "bit": 2094,
      "Text": 2095,
      ")**": 2096,
      "open": 2097,
      "CE": 2098,
      "complex": 2099,
      "Linear": 2100,
      "Key": 2101,
      "mpty": 2102,
      "our": 2103,
      "message": 2104,
      "``,": 2105,
      "gor": 2106,
      "ages": 2107,
      "uni": 2108,
      "docstring": 2109,
      "html": 2110,
      "__()": 2111,
      "quee": 2112,
      "attentions": 2113,
      "Ġ`(": 2114,
      "Ġbytes": 2115,
      "lip": 2116,
      "Ġbet": 2117,
      "precated": 2118,
      "buffer": 2119,
      "23": 2120,
      "omial": 2121,
      "mean": 2122,
      "matrix": 2123,
      "amma": 2124,
      "Trained": 2125,
      "Ġparameter": 2126,
      "Ġwrap": 2127,
      "Class": 2128,
      "--------------------------------": 2129,
      "*):": 2130,
      "ays": 2131,
      "apping": 2132,
      "ifier": 2133,
      "ĠWh": 2134,
      "unds": 2135,
      "ĠGH": 2136,
      "gorith": 2137,
      "ultiple": 2138,
      "Ġrel": 2139,
      "59": 2140,
      "Ġalso": 2141,
      "Ġreturned": 2142,
      "Ġext": 2143,
      "lambda": 2144,
      ")}": 2145,
      "expand": 2146,
      "cript": 2147,
      "ient": 2148,
      "licit": 2149,
      "Ġroot": 2150,
      "Node": 2151,
      "ating": 2152,
      "last": 2153,
      "Ġtr": 2154,
      "Implemented": 2155,
      "Ġunit": 2156,
      "Ġindices": 2157,
      "event": 2158,
      "case": 2159,
      "Ġvariable": 2160,
      "Ġbias": 2161,
      "umber": 2162,
      "Ġmean": 2163,
      "gine": 2164,
      "ATIN": 2165,
      "cab": 2166,
      "ĠParameters": 2167,
      "ĠDi": 2168,
      "Ġcomm": 2169,
      "Image": 2170,
      "Ġfield": 2171,
      "first": 2172,
      "forward": 2173,
      "Ġcolumns": 2174,
      "util": 2175,
      "File": 2176,
      "Dict": 2177,
      "eval": 2178,
      "ason": 2179,
      "ride": 2180,
      "label": 2181,
      "'],": 2182,
      "diff": 2183,
      "cf": 2184,
      "Ġrepresent": 2185,
      "Ġtwo": 2186,
      "Ġrandom": 2187,
      "ins": 2188,
      "angu": 2189,
      "queeze": 2190,
      "images": 2191,
      "Ġ\"_": 2192,
      "Ġref": 2193,
      "loss": 2194,
      "Ġctx": 2195,
      "Ġtypes": 2196,
      "Ġparameters": 2197,
      "Half": 2198,
      "Ġpassed": 2199,
      "cipy": 2200,
      "ITH": 2201,
      "ctory": 2202,
      ")):": 2203,
      "Ġenum": 2204,
      "Ġspecified": 2205,
      "TYPE": 2206,
      "Ġnormal": 2207,
      "sertion": 2208,
      "arange": 2209,
      "=-": 2210,
      "ched": 2211,
      "gle": 2212,
      "modules": 2213,
      "filter": 2214,
      "With": 2215,
      "most": 2216,
      "Ġparser": 2217,
      "27": 2218,
      "Ġleft": 2219,
      "Ġ64": 2220,
      "Ġnext": 2221,
      "Ġmat": 2222,
      "Ġredu": 2223,
      "mon": 2224,
      "ences": 2225,
      "ynamic": 2226,
      "Ġinfo": 2227,
      "Long": 2228,
      "dist": 2229,
      "'):": 2230,
      "uous": 2231,
      "ĠLATIN": 2232,
      "CO": 2233,
      "ALL": 2234,
      "cos": 2235,
      "MP": 2236,
      "dic": 2237,
      "Fa": 2238,
      "Ġlevel": 2239,
      "request": 2240,
      "field": 2241,
      "Ġag": 2242,
      "oint": 2243,
      "Ġdecoder": 2244,
      "MM": 2245,
      "Ġ\"ðŁ": 2246,
      "compile": 2247,
      "Return": 2248,
      "wn": 2249,
      "Ġafter": 2250,
      "---": 2251,
      "Ġoper": 2252,
      "Input": 2253,
      "Ġits": 2254,
      "Ġsingle": 2255,
      "Ġfollow": 2256,
      "ĠCallable": 2257,
      "Ġcomput": 2258,
      "Ġho": 2259,
      "ĊĠĠĠĠĠĠĠĠĠĠĠĠĠĠĠĠĠĠĠĠĠĠĠĠĠĠĠĠĠĠĠĠĠĠĠĠ": 2260,
      "iteral": 2261,
      "war": 2262,
      "FF": 2263,
      "groups": 2264,
      "Ġimp": 2265,
      "atten": 2266,
      "top": 2267,
      "cause": 2268,
      "</": 2269,
      "ely": 2270,
      "ĠPython": 2271,
      "rng": 2272,
      "layout": 2273,
      "io": 2274,
      "Ġinstead": 2275,
      "anguage": 2276,
      "Ġoffset": 2277,
      "ource": 2278,
      "Ġthere": 2279,
      "parent": 2280,
      "Ġskip": 2281,
      "Ġmap": 2282,
      "box": 2283,
      "Ġimplement": 2284,
      "ont": 2285,
      "stride": 2286,
      "Ġ----------": 2287,
      "datetime": 2288,
      "Ġhere": 2289,
      "used": 2290,
      "28": 2291,
      "tree": 2292,
      "FA": 2293,
      "nown": 2294,
      "Net": 2295,
      "Ġdoc": 2296,
      "Ġrequired": 2297,
      "ĠKey": 2298,
      "Ġoptim": 2299,
      "Data": 2300,
      "Ġexample": 2301,
      "freq": 2302,
      "dapt": 2303,
      "ween": 2304,
      "lines": 2305,
      "metadata": 2306,
      "kwarg": 2307,
      "unct": 2308,
      "eta": 2309,
      "Ġstride": 2310,
      "Ġuni": 2311,
      "Ġdifferent": 2312,
      "current": 2313,
      "ash": 2314,
      "ithub": 2315,
      ",)": 2316,
      "arr": 2317,
      "Ġob": 2318,
      "Ġbefore": 2319,
      "Process": 2320,
      "lied": 2321,
      "30": 2322,
      "tol": 2323,
      "Ġsp": 2324,
      "ions": 2325,
      "Ġpandas": 2326,
      "description": 2327,
      "Variable": 2328,
      "Ġeither": 2329,
      "pool": 2330,
      ".\")": 2331,
      "_{": 2332,
      "help": 2333,
      "tensors": 2334,
      "div": 2335,
      "Ġevent": 2336,
      "Ġab": 2337,
      "window": 2338,
      "Token": 2339,
      "Ġoptions": 2340,
      "convert": 2341,
      "nect": 2342,
      "sertionError": 2343,
      "Ġsqrt": 2344,
      "github": 2345,
      "cimal": 2346,
      "abs": 2347,
      "Ġ((": 2348,
      "Ġsupported": 2349,
      "IO": 2350,
      "static": 2351,
      "Ġval": 2352,
      "Ġver": 2353,
      "Ġheight": 2354,
      "resh": 2355,
      "\"))": 2356,
      "ote": 2357,
      "encode": 2358,
      "Ġpatch": 2359,
      "tocol": 2360,
      "ice": 2361,
      "0001": 2362,
      "Ġreturns": 2363,
      "atio": 2364,
      "fp": 2365,
      "squeeze": 2366,
      "untime": 2367,
      "rand": 2368,
      "Ġinteger": 2369,
      "vided": 2370,
      "ĠCall": 2371,
      "Ġmetadata": 2372,
      "space": 2373,
      "ĠIndex": 2374,
      "Ġbreak": 2375,
      "special": 2376,
      "Ġattribute": 2377,
      "Ġhttp": 2378,
      "ĊĠĠĠĠĠĠ": 2379,
      "Ġinclude": 2380,
      "Ġquant": 2381,
      "LongTensor": 2382,
      "hash": 2383,
      "54": 2384,
      "orage": 2385,
      "Ġstack": 2386,
      "ĠWITH": 2387,
      "202": 2388,
      "Ġ*,": 2389,
      "sample": 2390,
      "Ġ[[": 2391,
      "SS": 2392,
      "Ġglobal": 2393,
      "ctx": 2394,
      "ift": 2395,
      "erge": 2396,
      "Ġhasattr": 2397,
      "Form": 2398,
      "dims": 2399,
      "ugh": 2400,
      "script": 2401,
      "filename": 2402,
      "mediate": 2403,
      "fill": 2404,
      "Ġitem": 2405,
      "annot": 2406,
      "lower": 2407,
      "rol": 2408,
      "dt": 2409,
      "fc": 2410,
      "Ġexist": 2411,
      "http": 2412,
      "Ġencoding": 2413,
      "Ġlimit": 2414,
      "Ġ=====": 2415,
      "Ġstream": 2416,
      "Ġoperator": 2417,
      "]))": 2418,
      "Ġcos": 2419,
      "ĊĠĠĠĠĠĠĠĠĠĠĠĠĠĠĠĠĠĠĠĠĠĠĠĠĠĠĠĠĠĠĠ": 2420,
      "ĊĠĠ": 2421,
      "ĠIt": 2422,
      "search": 2423,
      "Ġpri": 2424,
      "sizes": 2425,
      "allclose": 2426,
      "columns": 2427,
      "Ġpoint": 2428,
      "rary": 2429,
      "ĠNotImplemented": 2430,
      "Ġopen": 2431,
      "Matrix": 2432,
      "Ġzero": 2433,
      "\".": 2434,
      "Ġfactor": 2435,
      "ater": 2436,
      "encoding": 2437,
      "argument": 2438,
      "pass": 2439,
      "ek": 2440,
      "===": 2441,
      "TP": 2442,
      "Ġter": 2443,
      "assertIs": 2444,
      "ose": 2445,
      "ugging": 2446,
      "================================": 2447,
      "ency": 2448,
      "uct": 2449,
      "cuda": 2450,
      "Ġ15": 2451,
      "ĠAssertionError": 2452,
      "LM": 2453,
      "Ġauto": 2454,
      "Ġclo": 2455,
      "let": 2456,
      "37": 2457,
      "find": 2458,
      "lag": 2459,
      "ven": 2460,
      "loop": 2461,
      "ĠPre": 2462,
      "Warning": 2463,
      "side": 2464,
      "Ġrank": 2465,
      "parser": 2466,
      "Ġresponse": 2467,
      "Ġwarnings": 2468,
      "zy": 2469,
      "lm": 2470,
      "pert": 2471,
      ")(": 2472,
      "Ġapply": 2473,
      "Gener": 2474,
      "parameters": 2475,
      "Ġmemory": 2476,
      "lex": 2477,
      "ĠTime": 2478,
      "Ch": 2479,
      "straint": 2480,
      "usal": 2481,
      "Ġattr": 2482,
      "Ġtop": 2483,
      "'.": 2484,
      "exec": 2485,
      "ain": 2486,
      "Ġsample": 2487,
      "Ġmath": 2488,
      "ities": 2489,
      "sequence": 2490,
      "ĠSt": 2491,
      "80": 2492,
      "Ġmod": 2493,
      "rectory": 2494,
      "ctionary": 2495,
      "ically": 2496,
      "memory": 2497,
      "ider": 2498,
      "decode": 2499,
      "sha": 2500,
      "-\\": 2501,
      "Ġreal": 2502,
      "gment": 2503,
      "ersion": 2504,
      "cc": 2505,
      "uard": 2506,
      "plit": 2507,
      "term": 2508,
      "ear": 2509,
      "fx": 2510,
      "AD": 2511,
      "style": 2512,
      "Ġap": 2513,
      "Ġav": 2514,
      "ilt": 2515,
      "Ġrequires": 2516,
      "ĠComp": 2517,
      "linear": 2518,
      "Ġbetween": 2519,
      "content": 2520,
      "gorithm": 2521,
      "apply": 2522,
      "Ġdis": 2523,
      "Ġtable": 2524,
      "viron": 2525,
      "Ġarr": 2526,
      "ian": 2527,
      "Ġempty": 2528,
      "ĊĠĠĠĠĠĠĠĠĠĠĠĠĠĠĠĠ": 2529,
      "lection": 2530,
      "ĠName": 2531,
      "Context": 2532,
      "response": 2533,
      "Ġprovided": 2534,
      "ested": 2535,
      "[^": 2536,
      "NAME": 2537,
      "served": 2538,
      "Ġzip": 2539,
      "ĠPro": 2540,
      "au": 2541,
      "Ġdirect": 2542,
      "Ġsymbols": 2543,
      "Ġkeep": 2544,
      "Ġdist": 2545,
      "Ġdistributed": 2546,
      "HT": 2547,
      "defined": 2548,
      "Ġdeta": 2549,
      "96": 2550,
      "Ġcolumn": 2551,
      "=[\"": 2552,
      "Ġtensors": 2553,
      "Ġsum": 2554,
      "andard": 2555,
      "adapt": 2556,
      "grid": 2557,
      "ternal": 2558,
      "respon": 2559,
      "color": 2560,
      "Ġpl": 2561,
      "50": 2562,
      "State": 2563,
      "full": 2564,
      "erate": 2565,
      "hs": 2566,
      "ĠSM": 2567,
      "Ġnd": 2568,
      "transpose": 2569,
      "Ġfunctions": 2570,
      "ĠPer": 2571,
      ")],": 2572,
      "87": 2573,
      "direct": 2574,
      "pping": 2575,
      "hook": 2576,
      "}\")": 2577,
      "functional": 2578,
      "*(": 2579,
      "Ġexpression": 2580,
      "extract": 2581,
      "Ġraises": 2582,
      "Ġfound": 2583,
      "next": 2584,
      "umb": 2585,
      "21": 2586,
      "ready": 2587,
      "]):": 2588,
      "atter": 2589,
      "sparse": 2590,
      "ML": 2591,
      "[_": 2592,
      "Ġ[(": 2593,
      "ification": 2594,
      "inv": 2595,
      "ended": 2596,
      "gram": 2597,
      "Ket": 2598,
      "Ġbecause": 2599,
      "flow": 2600,
      "olic": 2601,
      "ys": 2602,
      "qa": 2603,
      "Ġwindow": 2604,
      "PreTrained": 2605,
      "ĠString": 2606,
      "Ġrng": 2607,
      "abled": 2608,
      "################": 2609,
      "ĠAN": 2610,
      "mall": 2611,
      "ODO": 2612,
      "opt": 2613,
      "scalar": 2614,
      "available": 2615,
      "ites": 2616,
      "String": 2617,
      "Ġerr": 2618,
      "ixed": 2619,
      "kv": 2620,
      "cord": 2621,
      "unittest": 2622,
      "ti": 2623,
      "dot": 2624,
      "Arg": 2625,
      "([\"": 2626,
      "cker": 2627,
      "Ġpixel": 2628,
      "dispatch": 2629,
      "padding": 2630,
      "__,": 2631,
      "Ġhandle": 2632,
      "Ġcast": 2633,
      "ED": 2634,
      "ones": 2635,
      "audio": 2636,
      "Ġcre": 2637,
      "upload": 2638,
      "ndarray": 2639,
      "ĠGener": 2640,
      "meth": 2641,
      "...": 2642,
      "iguous": 2643,
      "istic": 2644,
      "hi": 2645,
      "med": 2646,
      ")?": 2647,
      "utf": 2648,
      "mute": 2649,
      "Ġthey": 2650,
      "Ġfilter": 2651,
      "arge": 2652,
      "Time": 2653,
      "afe": 2654,
      "...,": 2655,
      "Ġdisp": 2656,
      "Attention": 2657,
      "ĠNote": 2658,
      "Ġconfiguration": 2659,
      "link": 2660,
      "headers": 2661,
      "LA": 2662,
      "âĶĢ": 2663,
      "Ġfreq": 2664,
      "ĠList": 2665,
      "Ġlike": 2666,
      "Ġlogits": 2667,
      "Ġeps": 2668,
      "Ġgot": 2669,
      "Ġequal": 2670,
      ")[": 2671,
      "ignore": 2672,
      "Ġparent": 2673,
      "tool": 2674,
      "drop": 2675,
      "ĠAn": 2676,
      "astype": 2677,
      "inary": 2678,
      "cope": 2679,
      "ĠCheck": 2680,
      "trace": 2681,
      "Ġfilename": 2682,
      "Ġconv": 2683,
      "Ġobjects": 2684,
      "94": 2685,
      "step": 2686,
      "Ġkeys": 2687,
      "rypt": 2688,
      "ume": 2689,
      "Ġseq": 2690,
      "Ġedge": 2691,
      "Ġspecial": 2692,
      "Mo": 2693,
      "db": 2694,
      "Ġfull": 2695,
      "Ġ[{": 2696,
      "cul": 2697,
      "Ġcustom": 2698,
      "VAL": 2699,
      "chunk": 2700,
      "ĠTODO": 2701,
      "eric": 2702,
      "Ġbackend": 2703,
      "optim": 2704,
      "Ġlib": 2705,
      "fft": 2706,
      "Ġman": 2707,
      "ĊĠĠĠĠĠĠĠĠĠĠĠĠĠĠĠĠĠĠĠĠĠĠĠĠ": 2708,
      "Ġprefix": 2709,
      "TestC": 2710,
      "auth": 2711,
      "Ġenumerate": 2712,
      "ather": 2713,
      "body": 2714,
      "Ġannot": 2715,
      "ĠSMALL": 2716,
      "ssion": 2717,
      "classmethod": 2718,
      "ĠCON": 2719,
      "fe": 2720,
      "Comp": 2721,
      "tmp": 2722,
      "Ġcorrespon": 2723,
      "Ġcond": 2724,
      "swith": 2725,
      "ib": 2726,
      "Ġexc": 2727,
      "ategy": 2728,
      "functions": 2729,
      "download": 2730,
      "Ġadapt": 2731,
      "Ġlogger": 2732,
      "license": 2733,
      "Ġcount": 2734,
      "Ġ128": 2735,
      "remove": 2736,
      "road": 2737,
      "long": 2738,
      "Ġ11": 2739,
      "Ġlogging": 2740,
      "pretrained": 2741,
      "ym": 2742,
      "ĊĊĠ": 2743,
      "Ġelements": 2744,
      "sys": 2745,
      ".*": 2746,
      "Ġprec": 2747,
      "metric": 2748,
      "oc": 2749,
      "Ġasync": 2750,
      "models": 2751,
      "assertTrue": 2752,
      "vers": 2753,
      "Ġ```": 2754,
      "idual": 2755,
      "gree": 2756,
      "Ġ(-": 2757,
      "OP": 2758,
      "win": 2759,
      "Ġschema": 2760,
      "Ġfill": 2761,
      "URL": 2762,
      "Ġselect": 2763,
      "ULT": 2764,
      "exc": 2765,
      "Ġcalled": 2766,
      "Ġdon": 2767,
      ":`_": 2768,
      "Ġident": 2769,
      "Ġboth": 2770,
      "Kw": 2771,
      "\"\\": 2772,
      "','": 2773,
      "Ġstd": 2774,
      "ful": 2775,
      "38": 2776,
      "Ġform": 2777,
      "ĠCallFunction": 2778,
      "CHE": 2779,
      "ways": 2780,
      "tz": 2781,
      "Ġevalu": 2782,
      "global": 2783,
      "ki": 2784,
      "distribut": 2785,
      "ba": 2786,
      "Ġthem": 2787,
      "95": 2788,
      "debug": 2789,
      "Ġ\"\\": 2790,
      "caling": 2791,
      "Inter": 2792,
      "Ġcons": 2793,
      "untimeError": 2794,
      "book": 2795,
      "past": 2796,
      "roadcast": 2797,
      "ĠSymbol": 2798,
      "ynomial": 2799,
      "Ġtag": 2800,
      "ivation": 2801,
      "multi": 2802,
      "ĠSequence": 2803,
      "Ġ-------": 2804,
      "ping": 2805,
      "Ġpack": 2806,
      "ĠOR": 2807,
      "fra": 2808,
      "ĠTo": 2809,
      "vis": 2810,
      "Kwargs": 2811,
      "Ġstep": 2812,
      "Ġ[-": 2813,
      "Ġspecific": 2814,
      "sue": 2815,
      "formation": 2816,
      ")])": 2817,
      "ĊĠĠĠĠĠĠĠĠĠĠĠĠĠĠ": 2818,
      "Ġhash": 2819,
      "leg": 2820,
      "vars": 2821,
      "Ġaudio": 2822,
      "ject": 2823,
      "play": 2824,
      "asic": 2825,
      "ĠAlso": 2826,
      "ndim": 2827,
      "plot": 2828,
      "]*": 2829,
      "Exception": 2830,
      "ENT": 2831,
      "ĠZZ": 2832,
      "Processor": 2833,
      "Ġnoqa": 2834,
      "IONS": 2835,
      "Ġscalar": 2836,
      "Ġfin": 2837,
      "Ġ========": 2838,
      "Ġgenerated": 2839,
      "Conv": 2840,
      "dis": 2841,
      "rder": 2842,
      "ores": 2843,
      "lections": 2844,
      "Ġabs": 2845,
      "initial": 2846,
      ")).": 2847,
      "LIC": 2848,
      "Ġca": 2849,
      "Transform": 2850,
      "ĠCopy": 2851,
      "Ġsupports": 2852,
      "GE": 2853,
      "older": 2854,
      "ware": 2855,
      "Ġ100": 2856,
      "exception": 2857,
      "rot": 2858,
      "Ġold": 2859,
      ":]": 2860,
      "Ġcharact": 2861,
      "env": 2862,
      "Ġlanguage": 2863,
      "cing": 2864,
      "feature": 2865,
      "Ġ14": 2866,
      "uble": 2867,
      "column": 2868,
      "sym": 2869,
      "Ġtotal": 2870,
      "strip": 2871,
      "fs": 2872,
      "Ġparse": 2873,
      "itions": 2874,
      "ModelOutput": 2875,
      "Ġsol": 2876,
      "DA": 2877,
      "ĠAtt": 2878,
      "aa": 2879,
      "fail": 2880,
      "78": 2881,
      "PI": 2882,
      "Ġcom": 2883,
      "Ġloc": 2884,
      "ĠUnion": 2885,
      "({\"": 2886,
      "Ġresults": 2887,
      "Bu": 2888,
      "Ġchunk": 2889,
      "Ġchannel": 2890,
      "files": 2891,
      "Ġlabel": 2892,
      "mbolic": 2893,
      "Ġfiles": 2894,
      "unter": 2895,
      "Ġcompute": 2896,
      "PU": 2897,
      "child": 2898,
      "sql": 2899,
      "istr": 2900,
      "eriv": 2901,
      "allow": 2902,
      "Ġavailable": 2903,
      "Ġdictionary": 2904,
      "Ġstyle": 2905,
      "Ġsorted": 2906,
      "=_": 2907,
      "select": 2908,
      "lim": 2909,
      "Ġstruct": 2910,
      "stats": 2911,
      "cii": 2912,
      "Hand": 2913,
      "00000000": 2914,
      "bpage": 2915,
      "vari": 2916,
      "Ġfollowing": 2917,
      "Ġthread": 2918,
      "sig": 2919,
      "peat": 2920,
      "Group": 2921,
      "uring": 2922,
      "Ġmultiple": 2923,
      "gamma": 2924,
      "ĠCAP": 2925,
      "domain": 2926,
      "ITAL": 2927,
      "egral": 2928,
      "ĠRational": 2929,
      "store": 2930,
      "src": 2931,
      "ators": 2932,
      "ĠAdd": 2933,
      "mplete": 2934,
      "ĠInt": 2935,
      "Ġdefined": 2936,
      "Ġwant": 2937,
      "rep": 2938,
      "Ġtests": 2939,
      "utable": 2940,
      "Ġim": 2941,
      "void": 2942,
      "mag": 2943,
      "Path": 2944,
      "timestamp": 2945,
      "Ġexec": 2946,
      "Ġvector": 2947,
      "Ġthese": 2948,
      "ĠNotImplementedError": 2949,
      "Ġfind": 2950,
      "Ġalready": 2951,
      "ĠCAPITAL": 2952,
      "Ġeq": 2953,
      "Reg": 2954,
      "umbna": 2955,
      "31": 2956,
      "FT": 2957,
      "\"].": 2958,
      "antic": 2959,
      "256": 2960,
      "eno": 2961,
      "Ġwithout": 2962,
      "ident": 2963,
      "As": 2964,
      "Ġfeature": 2965,
      "curs": 2966,
      "Ġ20": 2967,
      "Ġfinal": 2968,
      "Embed": 2969,
      "cla": 2970,
      "US": 2971,
      "'}": 2972,
      "pattern": 2973,
      "zen": 2974,
      "ategorical": 2975,
      "ampling": 2976,
      "ĠTh": 2977,
      "Ġwo": 2978,
      "almost": 2979,
      "ffix": 2980,
      "Ġwrit": 2981,
      "Ġsplit": 2982,
      "requires": 2983,
      "dev": 2984,
      "ĠIter": 2985,
      "dient": 2986,
      "extension": 2987,
      "ted": 2988,
      "ĠNumber": 2989,
      "Ġcomplex": 2990,
      "'])": 2991,
      "cpu": 2992,
      "'},": 2993,
      "CL": 2994,
      "ube": 2995,
      "reduce": 2996,
      "Ser": 2997,
      "server": 2998,
      "ools": 2999,
      "ĠCopyright": 3000,
      "ccess": 3001,
      "ĠLo": 3002,
      "By": 3003,
      "generate": 3004,
      "TEST": 3005,
      "rows": 3006,
      "uint": 3007,
      "iton": 3008,
      "ummy": 3009,
      "extend": 3010,
      "host": 3011,
      "Ġdetails": 3012,
      "onent": 3013,
      "Ġ...,": 3014,
      "rope": 3015,
      "cape": 3016,
      "ls": 3017,
      "effic": 3018,
      "flags": 3019,
      "free": 3020,
      "Ġinformation": 3021,
      "onal": 3022,
      "RES": 3023,
      "alpha": 3024,
      "[[": 3025,
      "tractor": 3026,
      "Ġjust": 3027,
      "ĠYou": 3028,
      "ged": 3029,
      "Ġstats": 3030,
      "zip": 3031,
      "Ġpoints": 3032,
      "Ġwould": 3033,
      "structor": 3034,
      "blocks": 3035,
      "IZ": 3036,
      "ush": 3037,
      "pare": 3038,
      "zKet": 3039,
      "Ġhelp": 3040,
      "rozen": 3041,
      "128": 3042,
      "sympy": 3043,
      "Object": 3044,
      "RAN": 3045,
      "ckle": 3046,
      "Ġscipy": 3047,
      "eded": 3048,
      "âĸ": 3049,
      "Ġcontaining": 3050,
      "mission": 3051,
      "ĠWhen": 3052,
      "ems": 3053,
      "Element": 3054,
      "alle": 3055,
      "ink": 3056,
      "flatten": 3057,
      "Ġfn": 3058,
      "Ġconnection": 3059,
      "ries": 3060,
      "aN": 3061,
      "Ġtimeout": 3062,
      "gments": 3063,
      "lp": 3064,
      "Ġimages": 3065,
      "Ġmethods": 3066,
      "Ġvi": 3067,
      "gre": 3068,
      "Ġalpha": 3069,
      "vocab": 3070,
      "Ġmis": 3071,
      "warning": 3072,
      "Ġembeddings": 3073,
      "uler": 3074,
      "__)": 3075,
      "TestCase": 3076,
      "hub": 3077,
      "hip": 3078,
      "Ġrtol": 3079,
      "dp": 3080,
      "Symbol": 3081,
      "|\\": 3082,
      "Ġ13": 3083,
      "etwork": 3084,
      "Ġlines": 3085,
      "ĠWhether": 3086,
      "Series": 3087,
      "Ġview": 3088,
      "Ġcannot": 3089,
      "exist": 3090,
      "Ġdomain": 3091,
      "common": 3092,
      "pg": 3093,
      "engine": 3094,
      "Ġerrors": 3095,
      "Stream": 3096,
      "ublic": 3097,
      "sho": 3098,
      "IND": 3099,
      "65": 3100,
      "les": 3101,
      "72": 3102,
      "98": 3103,
      "****": 3104,
      "regex": 3105,
      "Ġ_,": 3106,
      "68": 3107,
      "npack": 3108,
      "TO": 3109,
      "MS": 3110,
      "bad": 3111,
      "Ġoption": 3112,
      "Ġ256": 3113,
      "Ġparams": 3114,
      "cd": 3115,
      "thread": 3116,
      "Ġcontent": 3117,
      "Ġexception": 3118,
      "ob": 3119,
      "iler": 3120,
      ")',": 3121,
      "ceptions": 3122,
      "rection": 3123,
      "Ġcorrect": 3124,
      "ssible": 3125,
      "where": 3126,
      "lete": 3127,
      "Ġdt": 3128,
      "itial": 3129,
      "staticmethod": 3130,
      "Ġdoesn": 3131,
      "gt": 3132,
      "pen": 3133,
      "ora": 3134,
      "Ġheader": 3135,
      "Str": 3136,
      "Get": 3137,
      "ĠCol": 3138,
      "wen": 3139,
      "[...,": 3140,
      "](": 3141,
      "Ġheaders": 3142,
      "ratio": 3143,
      "ĠAll": 3144,
      "ffers": 3145,
      "Ġunittest": 3146,
      "vals": 3147,
      "45": 3148,
      "Ġbuffer": 3149,
      "lify": 3150,
      "header": 3151,
      "embedding": 3152,
      "ader": 3153,
      "build": 3154,
      "Ġimplementation": 3155,
      "Ġndarray": 3156,
      "irs": 3157,
      "ĠTuple": 3158,
      "mutation": 3159,
      "EX": 3160,
      "Add": 3161,
      "Ġsecond": 3162,
      "Ġmark": 3163,
      "Ġperiod": 3164,
      "cho": 3165,
      "Param": 3166,
      "ike": 3167,
      "Trans": 3168,
      "ðŁļ¨ðŁļ¨ðŁļ¨ðŁļ¨ðŁļ¨ðŁļ¨ðŁļ¨ðŁļ¨ðŁļ¨ðŁļ¨ðŁļ¨ðŁļ¨ðŁļ¨ðŁļ¨ðŁļ¨ðŁļ¨": 3169,
      "ĠImage": 3170,
      "wd": 3171,
      "ĠSet": 3172,
      "subs": 3173,
      "Ġgrad": 3174,
      "gest": 3175,
      "Ġvar": 3176,
      "ĠIS": 3177,
      "Ġvari": 3178,
      "OUT": 3179,
      "(\\": 3180,
      "ability": 3181,
      "Ġ\"\"": 3182,
      "}),": 3183,
      "mapping": 3184,
      "Ġattributes": 3185,
      "Ġdescri": 3186,
      "imple": 3187,
      "fields": 3188,
      "CHECK": 3189,
      "ĠRuntimeError": 3190,
      "wrapper": 3191,
      "modeling": 3192,
      ":`~": 3193,
      "status": 3194,
      "insert": 3195,
      ")'": 3196,
      "42": 3197,
      "Ġcollections": 3198,
      "constant": 3199,
      "bl": 3200,
      "Ġbeen": 3201,
      "Ġchild": 3202,
      "straints": 3203,
      "Ġtz": 3204,
      "strict": 3205,
      "Ġfl": 3206,
      "Rational": 3207,
      "PreTrainedModel": 3208,
      "cum": 3209,
      "Ġgenerate": 3210,
      "gate": 3211,
      "example": 3212,
      "Ġsuch": 3213,
      "client": 3214,
      "future": 3215,
      "kind": 3216,
      "bers": 3217,
      "cheme": 3218,
      "Code": 3219,
      "?://": 3220,
      "bi": 3221,
      "Ġmy": 3222,
      "Size": 3223,
      "()),": 3224,
      "Ġ\"__": 3225,
      "Ġtokenizer": 3226,
      "exer": 3227,
      "\").": 3228,
      "Ġ[`": 3229,
      "ans": 3230,
      "ensure": 3231,
      "Ġalways": 3232,
      "Ġcho": 3233,
      "Ġspec": 3234,
      "ĊĠĠĠĠĠĠĠĠĠĠĠĠĠĠĠĠĠĠ": 3235,
      "Ġdistribution": 3236,
      "itespace": 3237,
      "SC": 3238,
      "Decoder": 3239,
      "adapter": 3240,
      "Var": 3241,
      "she": 3242,
      "ĠInter": 3243,
      "UM": 3244,
      "yper": 3245,
      "FAULT": 3246,
      "Ġâ": 3247,
      "ĠUse": 3248,
      "sol": 3249,
      "rou": 3250,
      "conds": 3251,
      "ĠQQ": 3252,
      "try": 3253,
      "masked": 3254,
      "umbnail": 3255,
      "VALID": 3256,
      "Ġreplace": 3257,
      "enter": 3258,
      "ĠOF": 3259,
      "socket": 3260,
      "prox": 3261,
      "mary": 3262,
      "_,": 3263,
      "pixel": 3264,
      "Ġvis": 3265,
      "errors": 3266,
      "Ġdown": 3267,
      "Ġpol": 3268,
      ")`": 3269,
      "negative": 3270,
      "ict": 3271,
      "ĠIgn": 3272,
      "ru": 3273,
      "Ġinv": 3274,
      "Al": 3275,
      "Sub": 3276,
      "vec": 3277,
      "ynamo": 3278,
      "stants": 3279,
      "pc": 3280,
      "aded": 3281,
      "sets": 3282,
      "very": 3283,
      "words": 3284,
      "inalg": 3285,
      "rouped": 3286,
      "No": 3287,
      "}{": 3288,
      "nly": 3289,
      "rough": 3290,
      "contiguous": 3291,
      "fd": 3292,
      "warn": 3293,
      "ĠRes": 3294,
      "024": 3295,
      "Ġnote": 3296,
      "videos": 3297,
      "permute": 3298,
      "backward": 3299,
      "ĠHT": 3300,
      "Color": 3301,
      "mi": 3302,
      "operator": 3303,
      "Ġsoft": 3304,
      "Result": 3305,
      "Ġ$": 3306,
      "arrow": 3307,
      "connect": 3308,
      "invalid": 3309,
      ",),": 3310,
      "Named": 3311,
      "Sequence": 3312,
      "buf": 3313,
      "rate": 3314,
      "cols": 3315,
      "La": 3316,
      "Ġassu": 3317,
      "Encoder": 3318,
      "Ġbeha": 3319,
      "VE": 3320,
      "Ġapplic": 3321,
      "HE": 3322,
      "Ġclient": 3323,
      "Ġmapping": 3324,
      "Ġawait": 3325,
      "Ġactual": 3326,
      "anged": 3327,
      "ĠUnpack": 3328,
      "Ġsure": 3329,
      "patches": 3330,
      "tools": 3331,
      "atched": 3332,
      "handler": 3333,
      "cio": 3334,
      "ually": 3335,
      "xx": 3336,
      "Ġremove": 3337,
      "unsqueeze": 3338,
      "Ġexact": 3339,
      "simp": 3340,
      "true": 3341,
      "integer": 3342,
      "tty": 3343,
      "Ġtri": 3344,
      "Ġtrace": 3345,
      "Vision": 3346,
      "Ġaut": 3347,
      "Ġbound": 3348,
      "Request": 3349,
      "jit": 3350,
      "quival": 3351,
      "Ġencode": 3352,
      "Ġfp": 3353,
      "Ġsrc": 3354,
      "Ġatol": 3355,
      "perties": 3356,
      "yncio": 3357,
      "46": 3358,
      "UP": 3359,
      "Up": 3360,
      "FI": 3361,
      "boxes": 3362,
      "logger": 3363,
      "Ġax": 3364,
      "vious": 3365,
      "symbols": 3366,
      "sole": 3367,
      "action": 3368,
      "SON": 3369,
      "Ġuses": 3370,
      "ĠMulti": 3371,
      "cfg": 3372,
      "task": 3373,
      "}'": 3374,
      "Ġsince": 3375,
      "FN": 3376,
      "PO": 3377,
      "duration": 3378,
      "ields": 3379,
      "crypt": 3380,
      "iling": 3381,
      "NO": 3382,
      "Block": 3383,
      "Ġdepend": 3384,
      "ordin": 3385,
      "Ġwhether": 3386,
      "Ġdimensions": 3387,
      "Ġret": 3388,
      "dtypes": 3389,
      "Ġchange": 3390,
      "Ġslice": 3391,
      "ignment": 3392,
      "Like": 3393,
      "')),": 3394,
      "Ġsystem": 3395,
      "soft": 3396,
      "stract": 3397,
      "Ġcontains": 3398,
      "ives": 3399,
      "Ġfeatures": 3400,
      "Ġdtypes": 3401,
      "startswith": 3402,
      "pytorch": 3403,
      "Ġpe": 3404,
      "Ġlong": 3405,
      "API": 3406,
      "perts": 3407,
      "Cont": 3408,
      "Ġupdate": 3409,
      "~~~~~~~~": 3410,
      "eam": 3411,
      "ĠException": 3412,
      "tax": 3413,
      "timeout": 3414,
      "rv": 3415,
      "Ġcases": 3416,
      "ĠVersion": 3417,
      "termin": 3418,
      "Lexer": 3419,
      "nal": 3420,
      "Response": 3421,
      "Ġwrite": 3422,
      "beta": 3423,
      "Log": 3424,
      "ĠPoly": 3425,
      "option": 3426,
      "sw": 3427,
      "dense": 3428,
      "bra": 3429,
      "Ġalgorithm": 3430,
      "/(": 3431,
      "allback": 3432,
      "âĶĢâĶĢ": 3433,
      "ĠAuto": 3434,
      "ech": 3435,
      "uplic": 3436,
      "proxy": 3437,
      "Ġgrid": 3438,
      "Ġsym": 3439,
      "depend": 3440,
      "ĊĠĠĠĠĠĠĠĠĠĠĠĠĠĠĠĠĠĠĠĠĠ": 3441,
      "usion": 3442,
      "Ġraw": 3443,
      "plat": 3444,
      "Ġentry": 3445,
      "quare": 3446,
      "depth": 3447,
      "pla": 3448,
      "processing": 3449,
      "rices": 3450,
      "Ġbody": 3451,
      "9999": 3452,
      "ĠIN": 3453,
      "LOCK": 3454,
      "UB": 3455,
      "Ġformats": 3456,
      "lation": 3457,
      "INT": 3458,
      "Ġdeprecated": 3459,
      "Ġcorresponding": 3460,
      "}.": 3461,
      "Ġsimp": 3462,
      "(**": 3463,
      "Ġserver": 3464,
      "Ġlayers": 3465,
      "cell": 3466,
      "fy": 3467,
      "48": 3468,
      "Ġcolor": 3469,
      "bone": 3470,
      "`:": 3471,
      "hes": 3472,
      "unding": 3473,
      "spect": 3474,
      "escape": 3475,
      "Ġtask": 3476,
      "writ": 3477,
      "cer": 3478,
      "Ġreference": 3479,
      "ection": 3480,
      "Ġseries": 3481,
      "Ġadapter": 3482,
      "Ġrot": 3483,
      "[:-": 3484,
      "ategories": 3485,
      "49": 3486,
      "warnings": 3487,
      "Id": 3488,
      "egers": 3489,
      "ture": 3490,
      "ĠTYPE": 3491,
      "Ġlower": 3492,
      "Ġcallable": 3493,
      "Ġour": 3494,
      "Ġstrict": 3495,
      "Cache": 3496,
      "aved": 3497,
      "KE": 3498,
      "Ident": 3499,
      "CHECKING": 3500,
      "allel": 3501,
      "olean": 3502,
      "solve": 3503,
      "Ġtol": 3504,
      "Ġmaximum": 3505,
      "ategory": 3506,
      "Ġmodi": 3507,
      "Ġmulti": 3508,
      "sues": 3509,
      "Ġtheir": 3510,
      "vate": 3511,
      "Vi": 3512,
      "Ġarrays": 3513,
      "thing": 3514,
      "*.": 3515,
      "Invalid": 3516,
      "Ġmeta": 3517,
      "Ġregister": 3518,
      "Map": 3519,
      "checkpoint": 3520,
      "after": 3521,
      "cessed": 3522,
      "Qu": 3523,
      "Ġopt": 3524,
      "pow": 3525,
      "masks": 3526,
      "oogle": 3527,
      "comb": 3528,
      "ured": 3529,
      "docs": 3530,
      "lots": 3531,
      "ĠID": 3532,
      "Ġbeing": 3533,
      "ĠKeyword": 3534,
      "Ġreason": 3535,
      "Ġloop": 3536,
      "processor": 3537,
      "slice": 3538,
      "Ġvision": 3539,
      "Ġremo": 3540,
      "Ġ'.": 3541,
      "section": 3542,
      "Ġ\".": 3543,
      "Ġ:,": 3544,
      "Expr": 3545,
      "ĠIgnored": 3546,
      "custom": 3547,
      "uggingface": 3548,
      "Me": 3549,
      "Ġavoid": 3550,
      "ĠAPI": 3551,
      "Ġpossible": 3552,
      "Mode": 3553,
      "symbol": 3554,
      "known": 3555,
      "finite": 3556,
      "VER": 3557,
      "Ġsocket": 3558,
      "Ġpost": 3559,
      "ia": 3560,
      "ily": 3561,
      "derr": 3562,
      ")\"": 3563,
      "Tag": 3564,
      "async": 3565,
      "Ġdirectory": 3566,
      "internal": 3567,
      "Ġdirectly": 3568,
      "light": 3569,
      "Ġpositive": 3570,
      "ĠĠĠĠĠĠĠĠĠĠĠĠĠĠĠĠĠĠĠĠĠĠĠĠĠĠĠ": 3571,
      "bound": 3572,
      "atible": 3573,
      "quivalent": 3574,
      "TH": 3575,
      "57": 3576,
      "Ġaxes": 3577,
      "ux": 3578,
      "onnx": 3579,
      "Ġbased": 3580,
      "handle": 3581,
      "dataclass": 3582,
      "ĊĠĠĠĠĠĠĠĠĠĠĠĠĠĠĠĠĠ": 3583,
      "requ": 3584,
      "Ġedges": 3585,
      "Ġitems": 3586,
      "Ġ[],": 3587,
      "ĠInitial": 3588,
      "prob": 3589,
      "Valid": 3590,
      "Ġvariables": 3591,
      "Ġjson": 3592,
      "ĠPoint": 3593,
      "Ġtransformers": 3594,
      "unctools": 3595,
      "tension": 3596,
      "Ġta": 3597,
      "Iter": 3598,
      "flat": 3599,
      "bb": 3600,
      "Ġplace": 3601,
      "bose": 3602,
      "Ġprob": 3603,
      "linalg": 3604,
      "69": 3605,
      "TR": 3606,
      "ffect": 3607,
      "Ġlinear": 3608,
      "seed": 3609,
      "Ġnow": 3610,
      "ĠSo": 3611,
      "Ġannotations": 3612,
      "Ġcalcul": 3613,
      "><": 3614,
      "QU": 3615,
      "live": 3616,
      "Ġbox": 3617,
      "Parameter": 3618,
      "diag": 3619,
      "single": 3620,
      "ĠLiteral": 3621,
      "deprecated": 3622,
      "scores": 3623,
      "Ġotherwise": 3624,
      "manager": 3625,
      "Handler": 3626,
      "'re": 3627,
      "40": 3628,
      "final": 3629,
      "testing": 3630,
      "thumbnail": 3631,
      "Ġ=========": 3632,
      "ĊĠĠĠĠĠĠĠĠĠĠĠĠĠĠĠĠĠĠĠĠĠĠĠĠĠĠĠĠĠĠĠĠĠĠĠ": 3633,
      ")\\": 3634,
      "Ġus": 3635,
      "CON": 3636,
      "Ġbehavi": 3637,
      "formats": 3638,
      "Extractor": 3639,
      "DP": 3640,
      "Ġpattern": 3641,
      "struction": 3642,
      "Mix": 3643,
      "uation": 3644,
      "positions": 3645,
      "FE": 3646,
      "attribute": 3647,
      "shapes": 3648,
      "Ġmain": 3649,
      "Dtype": 3650,
      "nb": 3651,
      "Ġadded": 3652,
      "->": 3653,
      "ten": 3654,
      "wi": 3655,
      "IES": 3656,
      "ĠCom": 3657,
      "save": 3658,
      "Ġabout": 3659,
      "47": 3660,
      "contain": 3661,
      "compute": 3662,
      "mult": 3663,
      "Ġpool": 3664,
      "ĠText": 3665,
      "defaults": 3666,
      "ideo": 3667,
      "Ġcomb": 3668,
      "Ġinvalid": 3669,
      "reshold": 3670,
      "sen": 3671,
      "Ġvo": 3672,
      "Ġhow": 3673,
      "plan": 3674,
      "ENSE": 3675,
      "reed": 3676,
      "Pool": 3677,
      "Ġexpand": 3678,
      ":`.": 3679,
      "alect": 3680,
      "Ġkeyword": 3681,
      "ton": 3682,
      "impl": 3683,
      "mplet": 3684,
      "bility": 3685,
      "dimension": 3686,
      "Ġperform": 3687,
      "release": 3688,
      "ferences": 3689,
      ".\",": 3690,
      "Ġhigh": 3691,
      "atial": 3692,
      "Ġmodules": 3693,
      "Ġstop": 3694,
      "subclass": 3695,
      "ATE": 3696,
      "RL": 3697,
      "og": 3698,
      "384": 3699,
      "Event": 3700,
      "merge": 3701,
      "Ġneeded": 3702,
      "Ġgeneration": 3703,
      "Ġtree": 3704,
      "lem": 3705,
      "vironment": 3706,
      "ĠNOT": 3707,
      "^^": 3708,
      "ector": 3709,
      "total": 3710,
      "command": 3711,
      "override": 3712,
      "Ġstrings": 3713,
      "This": 3714,
      "Ġthrough": 3715,
      "ower": 3716,
      "exit": 3717,
      "Ġadditional": 3718,
      "Ġsparse": 3719,
      "loor": 3720,
      "Ġlook": 3721,
      "ĠDecor": 3722,
      "Tuple": 3723,
      "Ġauth": 3724,
      "Ġresidual": 3725,
      "platform": 3726,
      "Ġduring": 3727,
      "template": 3728,
      "QL": 3729,
      "Ġoperation": 3730,
      "Ġrelative": 3731,
      "atal": 3732,
      "Ġfail": 3733,
      "Ġdocument": 3734,
      "safe": 3735,
      "ĠDE": 3736,
      "double": 3737,
      "reference": 3738,
      "fun": 3739,
      "inner": 3740,
      "Ġbackward": 3741,
      "Ġ200": 3742,
      "Ġmasked": 3743,
      "ground": 3744,
      "lap": 3745,
      "We": 3746,
      "Ġ19": 3747,
      "supported": 3748,
      "Head": 3749,
      "licy": 3750,
      "Ġbuild": 3751,
      "Ġaccept": 3752,
      "ascii": 3753,
      "Ġbeta": 3754,
      "ĠBy": 3755,
      "cross": 3756,
      "expression": 3757,
      "ves": 3758,
      "dia": 3759,
      "peed": 3760,
      "mote": 3761,
      "sired": 3762,
      "system": 3763,
      "^{": 3764,
      "67": 3765,
      "Ġ'__": 3766,
      "OL": 3767,
      "Ġsha": 3768,
      "day": 3769,
      "redential": 3770,
      "added": 3771,
      "signature": 3772,
      "58": 3773,
      "omat": 3774,
      "Ġspecify": 3775,
      "Ġwriting": 3776,
      "Multi": 3777,
      "aT": 3778,
      "ĠIE": 3779,
      "LayerNorm": 3780,
      "Ġ'%": 3781,
      "Ġbyte": 3782,
      "AC": 3783,
      "cut": 3784,
      "bove": 3785,
      "Ġwrapper": 3786,
      "etadata": 3787,
      "Ġpython": 3788,
      "acy": 3789,
      "connection": 3790,
      "inst": 3791,
      "alt": 3792,
      "ĠDefaults": 3793,
      "ĠOrder": 3794,
      "yt": 3795,
      "als": 3796,
      "Ġengine": 3797,
      "Ġren": 3798,
      "cr": 3799,
      "Ġtraining": 3800,
      "pdf": 3801,
      "Ġpresent": 3802,
      "Integer": 3803,
      "Ġoo": 3804,
      "ĠNO": 3805,
      "Ġexplicit": 3806,
      "Ġgo": 3807,
      "istent": 3808,
      "validate": 3809,
      "IM": 3810,
      "Ġpolynomial": 3811,
      "dantic": 3812,
      "product": 3813,
      "namespace": 3814,
      "Ġensure": 3815,
      "ĠDo": 3816,
      "osition": 3817,
      "original": 3818,
      "Ġdrop": 3819,
      "mail": 3820,
      "Ġaccess": 3821,
      "Ġ'#": 3822,
      "ral": 3823,
      "Ġ._": 3824,
      "storage": 3825,
      "Ġ'_": 3826,
      "ctest": 3827,
      "attrs": 3828,
      "Ġhe": 3829,
      "ilder": 3830,
      "shift": 3831,
      "Ġabove": 3832,
      "isode": 3833,
      "Op": 3834,
      "ines": 3835,
      "Ġpoly": 3836,
      "ĊĊĊĠĠĠ": 3837,
      "Ġsepar": 3838,
      "ively": 3839,
      "named": 3840,
      "bc": 3841,
      "DEFAULT": 3842,
      "Ġdepth": 3843,
      "holder": 3844,
      "Ġvia": 3845,
      "training": 3846,
      "Tokenizer": 3847,
      "Ġcommand": 3848,
      "arded": 3849,
      "Ġembedding": 3850,
      "seek": 3851,
      "__.": 3852,
      "uff": 3853,
      "Ġdynamic": 3854,
      "intermediate": 3855,
      "izing": 3856,
      "polation": 3857,
      "Ġden": 3858,
      "ributeError": 3859,
      "coeff": 3860,
      "ĠExample": 3861,
      "IGHT": 3862,
      "cap": 3863,
      "missions": 3864,
      "Ġ([": 3865,
      "assertFalse": 3866,
      "quences": 3867,
      "tings": 3868,
      "DF": 3869,
      "paces": 3870,
      "normalize": 3871,
      "Ġbar": 3872,
      "missing": 3873,
      "ness": 3874,
      "peech": 3875,
      "Tracker": 3876,
      "ĠHTTP": 3877,
      "Ġ17": 3878,
      "Ġfinally": 3879,
      "Ġcomputed": 3880,
      "gr": 3881,
      "callback": 3882,
      ")`,": 3883,
      "etch": 3884,
      "fake": 3885,
      "complete": 3886,
      "52": 3887,
      "Embedding": 3888,
      "ensed": 3889,
      "alias": 3890,
      "Ġobtain": 3891,
      "ĠWAR": 3892,
      "Parser": 3893,
      "ef": 3894,
      "Ġeven": 3895,
      "istry": 3896,
      "xml": 3897,
      "essage": 3898,
      "Ġ'{": 3899,
      "ĠCh": 3900,
      "Torch": 3901,
      "tokenizer": 3902,
      "Ġnan": 3903,
      "serial": 3904,
      "Ġkind": 3905,
      "Check": 3906,
      "IZE": 3907,
      "Ġ,": 3908,
      "mps": 3909,
      "ĊĠĠĠĠĠĠĠĠĠĠĠĠĠĠĠĠĠĠĠĠĠĠĠĠĠ": 3910,
      "playlist": 3911,
      "Argument": 3912,
      "degree": 3913,
      "sk": 3914,
      "unique": 3915,
      "erivative": 3916,
      "overload": 3917,
      "variable": 3918,
      "INE": 3919,
      "positive": 3920,
      "Spec": 3921,
      "ORM": 3922,
      "Ġsoftware": 3923,
      "Det": 3924,
      "ank": 3925,
      "send": 3926,
      "Ġnamedtype": 3927,
      "precation": 3928,
      "Back": 3929,
      "ZZ": 3930,
      "ĠFile": 3931,
      "Ġwithin": 3932,
      "NamedType": 3933,
      "frac": 3934,
      "Ġmon": 3935,
      "ĠANY": 3936,
      "mesh": 3937,
      "Ġpyref": 3938,
      "Ġpyrefly": 3939,
      "Ġextension": 3940,
      "atetime": 3941,
      "Ġgu": 3942,
      "Ġserial": 3943,
      "Over": 3944,
      "If": 3945,
      "entry": 3946,
      "Ġ`\"": 3947,
      "ied": 3948,
      "Ġrepr": 3949,
      "getitem": 3950,
      "ĠNotes": 3951,
      "Ġdir": 3952,
      "Ġpartial": 3953,
      "til": 3954,
      "ĠArray": 3955,
      "NS": 3956,
      "cv": 3957,
      "ĠFunction": 3958,
      "Ġlayout": 3959,
      "XX": 3960,
      "Ġ202": 3961,
      "binary": 3962,
      "Ġinner": 3963,
      "stop": 3964,
      "dynamic": 3965,
      "byte": 3966,
      "include": 3967,
      "sel": 3968,
      "uted": 3969,
      "Ġmissing": 3970,
      "Ġfields": 3971,
      "session": 3972,
      "83": 3973,
      "Ġclose": 3974,
      "own": 3975,
      "Ġapplicable": 3976,
      "clear": 3977,
      "(__": 3978,
      "tect": 3979,
      "Ref": 3980,
      "97": 3981,
      "Ġ30": 3982,
      "Ġblocks": 3983,
      "chs": 3984,
      "ateInfo": 3985,
      "axes": 3986,
      "ptr": 3987,
      "Ġbelow": 3988,
      "Ġleast": 3989,
      "ĠQu": 3990,
      "}\\": 3991,
      "Ġflat": 3992,
      "uploader": 3993,
      "Ġ\",": 3994,
      "desc": 3995,
      "rag": 3996,
      "Ġextract": 3997,
      "Ġhook": 3998,
      "Ġdisplay": 3999,
      "two": 4000,
      "ĠĠĠĠĠĠĠĠĠĠ": 4001,
      "tv": 4002,
      "dates": 4003,
      "see": 4004,
      "tom": 4005,
      "Ġevaluate": 4006,
      "record": 4007,
      "Ġprovide": 4008,
      "RANT": 4009,
      "scipy": 4010,
      "mlp": 4011,
      "ĠDecorateInfo": 4012,
      "gress": 4013,
      "Ġsolve": 4014,
      "ĠTra": 4015,
      "td": 4016,
      "Optional": 4017,
      "Ġ'-": 4018,
      "ãģ": 4019,
      "Ġcould": 4020,
      "Ġconstant": 4021,
      "activation": 4022,
      "LS": 4023,
      "Th": 4024,
      "ĠNaN": 4025,
      "abel": 4026,
      "Ġneeds": 4027,
      "Ġclasses": 4028,
      "eed": 4029,
      "ffic": 4030,
      "Ġsig": 4031,
      "emma": 4032,
      "experts": 4033,
      "matching": 4034,
      "One": 4035,
      "ĠIterable": 4036,
      "cies": 4037,
      "Per": 4038,
      "ĠWARRANT": 4039,
      "ĠTimestamp": 4040,
      "ench": 4041,
      "stances": 4042,
      "queries": 4043,
      "PT": 4044,
      "cheduler": 4045,
      "60": 4046,
      "Ġ'<": 4047,
      "issues": 4048,
      "Ġreduce": 4049,
      "licenses": 4050,
      "Ġalong": 4051,
      "/',": 4052,
      "timedelta": 4053,
      "}\",": 4054,
      "Ġflags": 4055,
      "Ġnamed": 4056,
      "ĠPath": 4057,
      "Ġ[{'": 4058,
      "Union": 4059,
      "cm": 4060,
      "reduction": 4061,
      "Ġwebpage": 4062,
      "Ġiterable": 4063,
      "Ġshow": 4064,
      "active": 4065,
      "93": 4066,
      "celer": 4067,
      "pache": 4068,
      "Ġprodu": 4069,
      "latform": 4070,
      "partial": 4071,
      "Ġsave": 4072,
      "Ġrv": 4073,
      "Ġfs": 4074,
      "192": 4075,
      "pk": 4076,
      "Ġassign": 4077,
      "Regex": 4078,
      "icro": 4079,
      "oper": 4080,
      "ĠNo": 4081,
      "Ġexpress": 4082,
      "Ġrequire": 4083,
      "').": 4084,
      "DataFrame": 4085,
      "Ġbehavior": 4086,
      "Ġsql": 4087,
      "inity": 4088,
      "ending": 4089,
      "ĠWARRANTIES": 4090,
      "Ġreduction": 4091,
      "display": 4092,
      "Format": 4093,
      "bind": 4094,
      "Ġvocab": 4095,
      "ersKwargs": 4096,
      "Ġfoo": 4097,
      "Ġsmall": 4098,
      "buffers": 4099,
      "ĠInterval": 4100,
      "tyle": 4101,
      "Number": 4102,
      "just": 4103,
      "ud": 4104,
      "Ġtitle": 4105,
      "Wrap": 4106,
      "Ġconstruct": 4107,
      "Metadata": 4108,
      "Ġperiods": 4109,
      "pet": 4110,
      "address": 4111,
      "Ġnegative": 4112,
      "strategy": 4113,
      "Ġprecision": 4114,
      "Bo": 4115,
      "ERT": 4116,
      "cdf": 4117,
      "may": 4118,
      "ae": 4119,
      "Ġcreated": 4120,
      "ĠLicensed": 4121,
      "ĠVariable": 4122,
      "gu": 4123,
      "extractor": 4124,
      "ost": 4125,
      "ific": 4126,
      "cli": 4127,
      "CU": 4128,
      "Ġmu": 4129,
      "codes": 4130,
      "Ġops": 4131,
      "before": 4132,
      "tc": 4133,
      "ilar": 4134,
      "comment": 4135,
      "Com": 4136,
      "xF": 4137,
      "Ġreport": 4138,
      "Ġlarge": 4139,
      "ĠBaseModelOutput": 4140,
      "Dis": 4141,
      "imilar": 4142,
      "iase": 4143,
      "repeat": 4144,
      "distributed": 4145,
      "Ġkw": 4146,
      "Ġbin": 4147,
      "Ġmeans": 4148,
      "apache": 4149,
      "Ġmock": 4150,
      "aco": 4151,
      "Ġhandler": 4152,
      "Ent": 4153,
      "IR": 4154,
      "ĊĠĠĠĠĠĠĠĠĠĠĠĠĠĠĠĠĠĠĠĠĠĠ": 4155,
      "Ġsolution": 4156,
      "Mixin": 4157,
      "aw": 4158,
      "pd": 4159,
      "period": 4160,
      "Ġtake": 4161,
      "uter": 4162,
      "Des": 4163,
      "ier": 4164,
      "ters": 4165,
      "crement": 4166,
      "ĠURL": 4167,
      "short": 4168,
      "'{": 4169,
      "Ġcallback": 4170,
      "ĠRo": 4171,
      "Ġunique": 4172,
      "ĠApache": 4173,
      "Ġcontrol": 4174,
      "Ġjo": 4175,
      "leanup": 4176,
      "Ġrows": 4177,
      "Instance": 4178,
      "82": 4179,
      "Ġrule": 4180,
      "Ġ...]": 4181,
      "LL": 4182,
      "43": 4183,
      "Ġyour": 4184,
      "ĠHugging": 4185,
      "Lic": 4186,
      "onents": 4187,
      "Ġpage": 4188,
      "Tests": 4189,
      "Ġintermediate": 4190,
      "package": 4191,
      "License": 4192,
      "QQ": 4193,
      "high": 4194,
      "standard": 4195,
      "mber": 4196,
      "lu": 4197,
      "Ġwarning": 4198,
      "]).": 4199,
      "blem": 4200,
      "LU": 4201,
      "yntax": 4202,
      "Ġstates": 4203,
      "DIT": 4204,
      "iding": 4205,
      "Ġrender": 4206,
      "Video": 4207,
      "guard": 4208,
      "_.": 4209,
      "lev": 4210,
      "null": 4211,
      "Ġfast": 4212,
      "Ġexpect": 4213,
      "}}": 4214,
      "Ġ\"â": 4215,
      "redentials": 4216,
      "Ġdesired": 4217,
      "Ġraised": 4218,
      "Ġcell": 4219,
      "So": 4220,
      "ĠSym": 4221,
      "Ġ:]": 4222,
      "hed": 4223,
      "decomp": 4224,
      "Ġmasks": 4225,
      "iece": 4226,
      "\");": 4227,
      "ĠJzKet": 4228,
      "slug": 4229,
      "exists": 4230,
      "Ġremoved": 4231,
      "ĊĠĠĠĠĠĠĠĠĠĠĠĠĠĠĠĠĠĠĠĠĠĠĠĠĠĠ": 4232,
      "73": 4233,
      "lector": 4234,
      "ĠĠĠĠĠĠĠĠĠĠĠĠ": 4235,
      "Ġgroups": 4236,
      "arrays": 4237,
      "53": 4238,
      "mem": 4239,
      "Ġpermissions": 4240,
      "show": 4241,
      "ession": 4242,
      "font": 4243,
      "une": 4244,
      "izers": 4245,
      "frames": 4246,
      "sm": 4247,
      "fast": 4248,
      "Ġmerge": 4249,
      "Ġleb": 4250,
      "Ġboxes": 4251,
      "liance": 4252,
      "Ġcy": 4253,
      "Ġautomat": 4254,
      "Ġfix": 4255,
      "Ġdone": 4256,
      "const": 4257,
      "Ġaten": 4258,
      "verage": 4259,
      "Ġ512": 4260,
      "63": 4261,
      "interval": 4262,
      "matmul": 4263,
      "counter": 4264,
      "Face": 4265,
      "Serial": 4266,
      "dataset": 4267,
      "force": 4268,
      "generation": 4269,
      "Ġ({": 4270,
      "Ġbuf": 4271,
      "Sh": 4272,
      "Ġtx": 4273,
      "upper": 4274,
      "Expected": 4275,
      "Of": 4276,
      "PA": 4277,
      "partition": 4278,
      "Ġwar": 4279,
      "Ġflag": 4280,
      "Ġlink": 4281,
      "proto": 4282,
      "shard": 4283,
      "Ġchannels": 4284,
      "MAP": 4285,
      "Ġagain": 4286,
      "SError": 4287,
      "Ġtrue": 4288,
      "tf": 4289,
      "alled": 4290,
      "configuration": 4291,
      "groupby": 4292,
      "Ġpackage": 4293,
      "atibility": 4294,
      "Ġside": 4295,
      "ĠBAS": 4296,
      "Ġissue": 4297,
      "ving": 4298,
      "Ġdecor": 4299,
      "Max": 4300,
      "scope": 4301,
      "Ġreserved": 4302,
      "times": 4303,
      "Feat": 4304,
      "sup": 4305,
      "pandas": 4306,
      "rule": 4307,
      "Ġtraverse": 4308,
      "Ġlimitations": 4309,
      "second": 4310,
      "Ġsegment": 4311,
      "factory": 4312,
      "ings": 4313,
      "cel": 4314,
      "Zero": 4315,
      "half": 4316,
      "encies": 4317,
      "enum": 4318,
      "radi": 4319,
      "Ġimplied": 4320,
      "vider": 4321,
      "Callable": 4322,
      "Ġevery": 4323,
      "Ġallowed": 4324,
      "using": 4325,
      "Ġoverride": 4326,
      "polys": 4327,
      "90": 4328,
      "Ġgover": 4329,
      "sock": 4330,
      "Ġ\"-": 4331,
      "ĠImport": 4332,
      "neg": 4333,
      "Ġcoeffic": 4334,
      "clip": 4335,
      "Ġinclu": 4336,
      "Ġnumbers": 4337,
      "ĠUnless": 4338,
      "Ġbinary": 4339,
      "ĠGet": 4340,
      "92": 4341,
      "Ġlow": 4342,
      "Mul": 4343,
      "Ġprevious": 4344,
      "ords": 4345,
      "Ġcross": 4346,
      "Ġequivalent": 4347,
      "umel": 4348,
      "ranch": 4349,
      "loads": 4350,
      "LICENSE": 4351,
      "enchmark": 4352,
      "Ġ24": 4353,
      "Ġenv": 4354,
      "ABLE": 4355,
      "Schema": 4356,
      "MO": 4357,
      "getattr": 4358,
      "Ġlaw": 4359,
      "Ġinspect": 4360,
      "ĠJSON": 4361,
      "Ġdest": 4362,
      "Ġcharacter": 4363,
      "Ġ1024": 4364,
      "tests": 4365,
      "/{": 4366,
      "IME": 4367,
      "Ġ18": 4368,
      "}:": 4369,
      "ading": 4370,
      "Ġ-----": 4371,
      "NN": 4372,
      "ni": 4373,
      "lr": 4374,
      "Ġprompt": 4375,
      ")``": 4376,
      "didate": 4377,
      "Ġmut": 4378,
      "Ġmost": 4379,
      "ĠAsync": 4380,
      "export": 4381,
      "Ġcompliance": 4382,
      "Ġdescription": 4383,
      "ĠEq": 4384,
      "Ġscript": 4385,
      "Ġwere": 4386,
      "Ġindic": 4387,
      "Ġmult": 4388,
      "Ġstandard": 4389,
      "Ġhost": 4390,
      "Ġsyn": 4391,
      "ĠWITHOUT": 4392,
      "causal": 4393,
      "Ġbounds": 4394,
      "Ġnamespace": 4395,
      "nested": 4396,
      "Ġfrequ": 4397,
      "Meta": 4398,
      "]]:": 4399,
      "Ġgoverning": 4400,
      "048": 4401,
      "ison": 4402,
      "ĠKIND": 4403,
      "concat": 4404,
      "Ġsignal": 4405,
      "Ġcompile": 4406,
      ",))": 4407,
      "2000": 4408,
      "Ġaction": 4409,
      "Ġask": 4410,
      "Ġasyncio": 4411,
      "Ġignored": 4412,
      "ĠCONDIT": 4413,
      "ATION": 4414,
      "attributes": 4415,
      "Ġgre": 4416,
      "paths": 4417,
      "Ġinterval": 4418,
      "bits": 4419,
      "Ġagreed": 4420,
      "sa": 4421,
      "Ġbuilt": 4422,
      "br": 4423,
      "variant": 4424,
      "ĠMo": 4425,
      "Ġseed": 4426,
      "Ġsignature": 4427,
      "Ġ'''": 4428,
      "polate": 4429,
      "Ġdeterm": 4430,
      "70": 4431,
      "ee": 4432,
      "ĠBASIS": 4433,
      "ĠCONDITIONS": 4434,
      "numeric": 4435,
      "anded": 4436,
      "ĠEn": 4437,
      "BU": 4438,
      "ĠOnly": 4439,
      "Ġupper": 4440,
      "HA": 4441,
      "idget": 4442,
      "ĠDict": 4443,
      "Ġbroadcast": 4444,
      "096": 4445,
      "NE": 4446,
      "Product": 4447,
      "Auto": 4448,
      "exceptions": 4449,
      "unctuation": 4450,
      "issue": 4451,
      "Ġshort": 4452,
      "Returns": 4453,
      "Wr": 4454,
      "queue": 4455,
      "clone": 4456,
      "generator": 4457,
      "Ġpretrained": 4458,
      "Ġway": 4459,
      "sorted": 4460,
      "BLOCK": 4461,
      "Ġtmp": 4462,
      "caled": 4463,
      "Ġmodels": 4464,
      "Ġfree": 4465,
      "Ġnetwork": 4466,
      "Ġ201": 4467,
      "Pi": 4468,
      "Ġremain": 4469,
      "ish": 4470,
      "img": 4471,
      "Ġscaling": 4472,
      "ĠHuggingFace": 4473,
      "loader": 4474,
      "Ġ\"--": 4475,
      "lause": 4476,
      "location": 4477,
      "report": 4478,
      "protocol": 4479,
      "ĠOrdered": 4480,
      "sep": 4481,
      "ausal": 4482,
      "ĠMultiIndex": 4483,
      "ttr": 4484,
      "Ġtoo": 4485,
      "ĠCache": 4486,
      "1234": 4487,
      "Ġonnx": 4488,
      "subgraph": 4489,
      "gather": 4490,
      "ĠNode": 4491,
      "vit": 4492,
      "Ġts": 4493,
      "Ro": 4494,
      "former": 4495,
      "Or": 4496,
      "}',": 4497,
      "IGN": 4498,
      "Ġgen": 4499,
      "bf": 4500,
      "Ġenable": 4501,
      "egrate": 4502,
      "An": 4503,
      "))),": 4504,
      "lication": 4505,
      "wiki": 4506,
      "ĠĠĠĠĠĠĠĠĠĠĠĠĠĠĠĠĠĠĠĠĠĠĠĠĠĠĠĠĠĠĠĠ": 4507,
      "arison": 4508,
      "atterns": 4509,
      "'}],": 4510,
      "prompt": 4511,
      "angle": 4512,
      "descript": 4513,
      "ĠLine": 4514,
      "PR": 4515,
      "anges": 4516,
      "Ġcharacters": 4517,
      "SIZE": 4518,
      "Ġforce": 4519,
      "ĠDO": 4520,
      "ĠData": 4521,
      "typing": 4522,
      "score": 4523,
      "Ġdisable": 4524,
      "tim": 4525,
      "arding": 4526,
      "Ġstore": 4527,
      "cores": 4528,
      "Ġvalidate": 4529,
      "Ġapplied": 4530,
      "anh": 4531,
      "offsets": 4532,
      "Moe": 4533,
      "Buffer": 4534,
      "LI": 4535,
      "Le": 4536,
      "lear": 4537,
      "Ġcalls": 4538,
      "Ġfuture": 4539,
      "autograd": 4540,
      "Ġsubclass": 4541,
      "KEY": 4542,
      "Ġdecode": 4543,
      "cessary": 4544,
      "theta": 4545,
      "ordinates": 4546,
      "txt": 4547,
      "ugin": 4548,
      "ĠInteger": 4549,
      "STR": 4550,
      "relative": 4551,
      "62": 4552,
      "cret": 4553,
      "Enum": 4554,
      "Ġsymbol": 4555,
      "probs": 4556,
      "stage": 4557,
      "policy": 4558,
      "emb": 4559,
      "Hel": 4560,
      "Version": 4561,
      "tags": 4562,
      "Dim": 4563,
      "pipe": 4564,
      "Ġstatus": 4565,
      "maybe": 4566,
      "Width": 4567,
      "Ġproduct": 4568,
      "clar": 4569,
      "stdout": 4570,
      "dm": 4571,
      "ĠSub": 4572,
      "Connection": 4573,
      "Field": 4574,
      "Ġcommon": 4575,
      "Ġ25": 4576,
      "Ġoperations": 4577,
      "Ġdebug": 4578,
      "TED": 4579,
      ".+": 4580,
      "alk": 4581,
      "titles": 4582,
      "exact": 4583,
      "BC": 4584,
      "assertIn": 4585,
      "bert": 4586,
      "directed": 4587,
      "okie": 4588,
      "indexer": 4589,
      "Ġpair": 4590,
      "101": 4591,
      "ram": 4592,
      "mpify": 4593,
      "andom": 4594,
      "Ġsuffix": 4595,
      "events": 4596,
      "uri": 4597,
      "Ġdiag": 4598,
      "Ġ\"<": 4599,
      "Point": 4600,
      "Ġthose": 4601,
      "AAAA": 4602,
      "ĊĊĠĠĠĠĠĠĠĠĠĠĠĠĠĠĠĠĠĠĠ": 4603,
      "interface": 4604,
      "Ġport": 4605,
      "ressed": 4606,
      "User": 4607,
      "scaling": 4608,
      "Ġgrouped": 4609,
      "ĠModel": 4610,
      "lab": 4611,
      "power": 4612,
      "indu": 4613,
      "TransformersKwargs": 4614,
      "Ġfunctools": 4615,
      "ring": 4616,
      "mock": 4617,
      "Ġsimple": 4618,
      "union": 4619,
      "ĠColumn": 4620,
      "changed": 4621,
      "dlp": 4622,
      "estim": 4623,
      "2011": 4624,
      "Ġio": 4625,
      "rewrite": 4626,
      "formed": 4627,
      "Ġshift": 4628,
      "large": 4629,
      "xa": 4630,
      "deep": 4631,
      "setter": 4632,
      "Ġwhat": 4633,
      "Ġproxy": 4634,
      "ATU": 4635,
      "backends": 4636,
      "runtime": 4637,
      "Ġexisting": 4638,
      "mes": 4639,
      "ropy": 4640,
      "center": 4641,
      "reset": 4642,
      "Ġimplemented": 4643,
      "Ġstatement": 4644,
      "ĠOther": 4645,
      "Ġconsider": 4646,
      "broadcast": 4647,
      "mu": 4648,
      "fixture": 4649,
      "jac": 4650,
      "environ": 4651,
      "Ġdiff": 4652,
      "xff": 4653,
      "lama": 4654,
      "Ġtf": 4655,
      "Ġasso": 4656,
      "Ġnormalize": 4657,
      "SA": 4658,
      "Ġmultip": 4659,
      "512": 4660,
      "Lazy": 4661,
      "ire": 4662,
      "iloc": 4663,
      "Ġtak": 4664,
      "Ġequ": 4665,
      "users": 4666,
      "break": 4667,
      "fin": 4668,
      "edit": 4669,
      "ctype": 4670,
      "Ġsw": 4671,
      "Ġrights": 4672,
      "Ġterms": 4673,
      "ULL": 4674,
      "Ġtool": 4675,
      "Ġalias": 4676,
      "ients": 4677,
      "Python": 4678,
      "inductor": 4679,
      "iterable": 4680,
      "ĠGraph": 4681,
      "closed": 4682,
      "Source": 4683,
      "pear": 4684,
      "Ġgh": 4685,
      "chemy": 4686,
      "[\\": 4687,
      "mpletion": 4688,
      "Ġtrack": 4689,
      "Ġplt": 4690,
      "ĠCreate": 4691,
      "trunc": 4692,
      "levels": 4693,
      "IV": 4694,
      "NT": 4695,
      "**(": 4696,
      "Ġmatching": 4697,
      "Ġdelta": 4698,
      "Past": 4699,
      "olute": 4700,
      "Bytes": 4701,
      "configs": 4702,
      "()))": 4703,
      "tp": 4704,
      "extensions": 4705,
      "Ġstill": 4706,
      "Ġstorage": 4707,
      "ternative": 4708,
      "123": 4709,
      "Method": 4710,
      "PRE": 4711,
      "Ġssl": 4712,
      "Down": 4713,
      "lies": 4714,
      "Ġmight": 4715,
      "ausalLM": 4716,
      "delete": 4717,
      "Ġinverse": 4718,
      "xc": 4719,
      "Ġrunning": 4720,
      "infer": 4721,
      "`]": 4722,
      "triton": 4723,
      "Ġsizes": 4724,
      "224": 4725,
      "PRO": 4726,
      "Ġentries": 4727,
      "ĠMy": 4728,
      "ĠQwen": 4729,
      "cording": 4730,
      "simplify": 4731,
      "Ġfra": 4732,
      "lias": 4733,
      "world": 4734,
      "huggingface": 4735,
      "ĠThese": 4736,
      "Ġteam": 4737,
      "Ġtre": 4738,
      "differ": 4739,
      "false": 4740,
      "fmt": 4741,
      "geo": 4742,
      "enabled": 4743,
      "funcs": 4744,
      "curren": 4745,
      "Classification": 4746,
      "scheme": 4747,
      "Message": 4748,
      "END": 4749,
      "Ġscores": 4750,
      "Ġdropout": 4751,
      "collect": 4752,
      "ssl": 4753,
      "FUN": 4754,
      "Poly": 4755,
      "stribution": 4756,
      "thw": 4757,
      "ĠTrans": 4758,
      "symbolic": 4759,
      "Ġorigin": 4760,
      "Options": 4761,
      "Ġsymbolic": 4762,
      "Ġautomatically": 4763,
      "Ġstage": 4764,
      ">`": 4765,
      "onical": 4766,
      "Ġcapt": 4767,
      "Ġ==========": 4768,
      "ĠCan": 4769,
      "Ġdesc": 4770,
      "ĊĠĠĠĠĠĠĠĠĠĠĠĠĠĠĠĠĠĠĠĠĠĠĠĠĠĠĠĠĠ": 4771,
      "finity": 4772,
      "sv": 4773,
      "WithPast": 4774,
      "Ġworks": 4775,
      "cay": 4776,
      "Ġ84": 4777,
      "lang": 4778,
      "001": 4779,
      "ches": 4780,
      "ĠInc": 4781,
      "Ġ\\\\": 4782,
      "Ġ''": 4783,
      "imag": 4784,
      "ough": 4785,
      "Ġcollect": 4786,
      "ĠRaises": 4787,
      "inator": 4788,
      "Wh": 4789,
      "capt": 4790,
      "Ġmaybe": 4791,
      "Uni": 4792,
      "\"}": 4793,
      "CA": 4794,
      "Ġpickle": 4795,
      "serve": 4796,
      "built": 4797,
      "Ġinsert": 4798,
      ")*(": 4799,
      "roll": 4800,
      "itch": 4801,
      "ĠCompute": 4802,
      "resize": 4803,
      "pair": 4804,
      "fic": 4805,
      "Column": 4806,
      "fficient": 4807,
      "Ġsubgraph": 4808,
      "ORT": 4809,
      "cp": 4810,
      "floor": 4811,
      "Ġlat": 4812,
      "Ġoptimizer": 4813,
      "Ġcondition": 4814,
      "inplace": 4815,
      "dated": 4816,
      "mer": 4817,
      "Pr": 4818,
      "egin": 4819,
      "Ġflatten": 4820,
      "81": 4821,
      "steps": 4822,
      "else": 4823,
      "Create": 4824,
      "deta": 4825,
      "Ġpaths": 4826,
      "zz": 4827,
      "indent": 4828,
      "Ġlibrary": 4829,
      "orp": 4830,
      "Ġscope": 4831,
      "Ġencoded": 4832,
      "lt": 4833,
      "Ġcrop": 4834,
      "urces": 4835,
      "origin": 4836,
      "Ġdns": 4837,
      "Ġ\"%": 4838,
      "Content": 4839,
      "segment": 4840,
      ">'": 4841,
      "xe": 4842,
      "Ġprocessing": 4843,
      "Ġstatic": 4844,
      "ĠField": 4845,
      "small": 4846,
      "Ġsearch": 4847,
      "prepare": 4848,
      "Ġprotocol": 4849,
      "Ġ[])": 4850,
      "csv": 4851,
      "Ġinstall": 4852,
      "dynamo": 4853,
      "Ġ).": 4854,
      "ĠAttributeError": 4855,
      "Ġbit": 4856,
      "cumul": 4857,
      "aries": 4858,
      ".)": 4859,
      "Ġoc": 4860,
      "Ġwell": 4861,
      "ĠPeriod": 4862,
      "Ġword": 4863,
      "Man": 4864,
      "Ġterm": 4865,
      "unicode": 4866,
      "Ġstructure": 4867,
      "iso": 4868,
      "ĠCategorical": 4869,
      "addr": 4870,
      "Ġ',": 4871,
      "uid": 4872,
      "Ġmany": 4873,
      "numel": 4874,
      "ssages": 4875,
      "Feature": 4876,
      "Ġ\"\",": 4877,
      "IX": 4878,
      "Ġtrunc": 4879,
      "Ġdefine": 4880,
      "bounds": 4881,
      "Ġzeros": 4882,
      "Ġboolean": 4883,
      "Ġrepresentation": 4884,
      "typed": 4885,
      "samples": 4886,
      "igen": 4887,
      "ASE": 4888,
      "Ġconstraint": 4889,
      "768": 4890,
      "fb": 4891,
      "utes": 4892,
      "Ġeffect": 4893,
      "cb": 4894,
      "Ġfmt": 4895,
      "precision": 4896,
      "URN": 4897,
      "auss": 4898,
      "PY": 4899,
      "cached": 4900,
      "Ġans": 4901,
      "Ġhf": 4902,
      "Ġinplace": 4903,
      "Ġprocessor": 4904,
      "ĊĊĠĠĠĠĠĠĠĠĠ": 4905,
      "',),": 4906,
      "Ġgenerator": 4907,
      "Ġir": 4908,
      "ĠĠĠĠĠĠĠĠĠĠĠĠĠĠĠ": 4909,
      "Ġnested": 4910,
      "Ġdataset": 4911,
      "roke": 4912,
      "__.__": 4913,
      "lineno": 4914,
      "ĠReg": 4915,
      "ivari": 4916,
      "1000": 4917,
      "ĠNum": 4918,
      "ĠKeyError": 4919,
      "Ġrepo": 4920,
      "igher": 4921,
      "quantize": 4922,
      "iases": 4923,
      "multiple": 4924,
      "Ġfrozen": 4925,
      "iecewise": 4926,
      "Network": 4927,
      "gits": 4928,
      "ĠImportError": 4929,
      "Ġ42": 4930,
      "edu": 4931,
      "Ġfailed": 4932,
      "Ġarch": 4933,
      "avg": 4934,
      "go": 4935,
      "Attribute": 4936,
      "[^/": 4937,
      "constructor": 4938,
      "DO": 4939,
      "lan": 4940,
      "ivariate": 4941,
      "Ġ50": 4942,
      "Ġsupp": 4943,
      "ancel": 4944,
      "Session": 4945,
      "Ġ()": 4946,
      ")`):": 4947,
      "ili": 4948,
      "wrapped": 4949,
      "MMMM": 4950,
      "ImageProcessor": 4951,
      "aut": 4952,
      "span": 4953,
      "Ġcurrently": 4954,
      "Ġonce": 4955,
      "Ġconstraints": 4956,
      "tract": 4957,
      "Ġindent": 4958,
      "pers": 4959,
      "fies": 4960,
      "([(": 4961,
      "Ġ`[": 4962,
      "annotation": 4963,
      ")\",": 4964,
      "ern": 4965,
      "Ġminimum": 4966,
      "MAX": 4967,
      "hf": 4968,
      "Ġconstructor": 4969,
      "maps": 4970,
      "ĠSpeci": 4971,
      "################################": 4972,
      "Ġconcat": 4973,
      "Ġproj": 4974,
      "ately": 4975,
      "Ġactive": 4976,
      "ĠTransform": 4977,
      "Constraint": 4978,
      "track": 4979,
      "Ġguard": 4980,
      "Ġfake": 4981,
      "cursive": 4982,
      "web": 4983,
      "ĠPreTrained": 4984,
      "supports": 4985,
      "stderr": 4986,
      "diction": 4987,
      "/(?": 4988,
      "ĠDatetime": 4989,
      "Ġsamples": 4990,
      "Ġconf": 4991,
      "Operator": 4992,
      "hist": 4993,
      "Ġbest": 4994,
      "BaseIE": 4995,
      "Load": 4996,
      "Wrapper": 4997,
      "Ġ-=": 4998,
      "note": 4999,
      "fg": 5000,
      "ick": 5001,
      "Ġdisc": 5002,
      "Ġbad": 5003,
      "2014": 5004,
      ");": 5005,
      "ĠĠĠĠĠĠĠĠĠĠĠ": 5006,
      "phys": 5007,
      "Ġsaved": 5008,
      "align": 5009,
      "51": 5010,
      "Ġpadded": 5011,
      "Ġappro": 5012,
      "elements": 5013,
      "]\",": 5014,
      "ination": 5015,
      "asis": 5016,
      "Functions": 5017,
      "clus": 5018,
      "Ġnumer": 5019,
      "FC": 5020,
      "Ġ1000": 5021,
      "compatible": 5022,
      "ĠAND": 5023,
      "ĠRE": 5024,
      "episode": 5025,
      "Ġdegree": 5026,
      "ffset": 5027,
      "41": 5028,
      "Temp": 5029,
      "results": 5030,
      "lengths": 5031,
      "Ġratio": 5032,
      "Ġexport": 5033,
      "Ġbygroups": 5034,
      "Ġalign": 5035,
      "()]": 5036,
      "Ġdispatch": 5037,
      "lora": 5038,
      "lying": 5039,
      ").__": 5040,
      "ACK": 5041,
      "ues": 5042,
      "parameter": 5043,
      "})\"": 5044,
      "Ġmpf": 5045,
      "Ġplatform": 5046,
      "webpage": 5047,
      "Ġordered": 5048,
      "ABC": 5049,
      "gm": 5050,
      "Ġprocessed": 5051,
      "Ġcompatibility": 5052,
      "Ġcalling": 5053,
      "Extension": 5054,
      "Ġeval": 5055,
      "Ġitertools": 5056,
      "FEATU": 5057,
      "entity": 5058,
      "ĠPunctuation": 5059,
      "71": 5060,
      "Ġmatches": 5061,
      "ĠComment": 5062,
      "Ġpop": 5063,
      "Fail": 5064,
      "suffix": 5065,
      "HTTP": 5066,
      "ĠUser": 5067,
      "ferred": 5068,
      "bucket": 5069,
      "Ġnecessary": 5070,
      "ĠConvert": 5071,
      "strings": 5072,
      "ĠModule": 5073,
      "Sy": 5074,
      "this": 5075,
      "INGS": 5076,
      "Ġtempor": 5077,
      "zone": 5078,
      "cons": 5079,
      "Ġcheckpoint": 5080,
      "direction": 5081,
      "ĠOpen": 5082,
      "Ite": 5083,
      "render": 5084,
      "outer": 5085,
      "Ġdup": 5086,
      "Ġuseful": 5087,
      "ĠSh": 5088,
      "ĠOp": 5089,
      "ĠApp": 5090,
      "?://(?:": 5091,
      "ĠNOTE": 5092,
      "same": 5093,
      "Ġfixed": 5094,
      "Ġpartition": 5095,
      "layernorm": 5096,
      "contains": 5097,
      "ĠOSError": 5098,
      "Ġsetting": 5099,
      "quantized": 5100,
      "ĠInput": 5101,
      "Ġ~": 5102,
      "network": 5103,
      "Ġvisit": 5104,
      "dependent": 5105,
      "'(": 5106,
      "year": 5107,
      "Ġwait": 5108,
      "Ġspace": 5109,
      "ottom": 5110,
      "âĸģ": 5111,
      "Given": 5112,
      "Stat": 5113,
      "RAW": 5114,
      "tle": 5115,
      ">\\": 5116,
      "rl": 5117,
      "RESET": 5118,
      "Ġassoci": 5119,
      "61": 5120,
      "Ġnumeric": 5121,
      "Ġtemplate": 5122,
      "kes": 5123,
      "children": 5124,
      "pickle": 5125,
      "slots": 5126,
      "Ġconn": 5127,
      "multip": 5128,
      "Ġutil": 5129,
      "ands": 5130,
      "ATA": 5131,
      "isinstance": 5132,
      "Ġversionadded": 5133,
      "laylist": 5134,
      "roots": 5135,
      "Ġrecord": 5136,
      "Ġmer": 5137,
      "Ġna": 5138,
      "RET": 5139,
      "ĠCont": 5140,
      "google": 5141,
      "ĠAR": 5142,
      "********": 5143,
      "Ġnull": 5144,
      "stit": 5145,
      "Ġcore": 5146,
      "arguments": 5147,
      "lers": 5148,
      "----------------------------------------------------------------": 5149,
      "implement": 5150,
      "notated": 5151,
      "ĠUni": 5152,
      "ĠWhitespace": 5153,
      "Ġinference": 5154,
      "Ġdmp": 5155,
      "Ġparts": 5156,
      "ensity": 5157,
      "Ġconnect": 5158,
      "Ġdecimal": 5159,
      "789": 5160,
      "Ġexit": 5161,
      "library": 5162,
      "sd": 5163,
      "categories": 5164,
      "ĠâĶ": 5165,
      "ster": 5166,
      "Ġ^": 5167,
      "iline": 5168,
      "================================================================": 5169,
      "Identifier": 5170,
      "except": 5171,
      "seconds": 5172,
      "And": 5173,
      "Ġless": 5174,
      "Call": 5175,
      "unch": 5176,
      "Ġclosed": 5177,
      "Ġshapes": 5178,
      "Ġflow": 5179,
      "vt": 5180,
      "herit": 5181,
      "ĠReferences": 5182,
      "ĠDis": 5183,
      "serv": 5184,
      "ĠBatch": 5185,
      "ump": 5186,
      "Ġinterpre": 5187,
      "Ġdecomp": 5188,
      "2013": 5189,
      "Ġconverted": 5190,
      "Logger": 5191,
      "category": 5192,
      "Ġknown": 5193,
      "condition": 5194,
      "olved": 5195,
      "Ġanother": 5196,
      "Ġtimes": 5197,
      "Scalar": 5198,
      "native": 5199,
      "Ġcached": 5200,
      "mk": 5201,
      "loaded": 5202,
      "ĠĠĠĠĠĠĠĠĠ": 5203,
      "Ġexists": 5204,
      "Table": 5205,
      "cert": 5206,
      "__',": 5207,
      "cycle": 5208,
      "assertRaisesRegex": 5209,
      "chedule": 5210,
      "doit": 5211,
      "prod": 5212,
      "FORM": 5213,
      ")/(": 5214,
      "versal": 5215,
      "blob": 5216,
      "Ġcoeff": 5217,
      "prime": 5218,
      "ĠNetwork": 5219,
      "Ġimg": 5220,
      "Ġparsed": 5221,
      "Ġetc": 5222,
      "dst": 5223,
      "'\"": 5224,
      "Exec": 5225,
      "uplicate": 5226,
      "ength": 5227,
      "utor": 5228,
      "Ġsafe": 5229,
      "ising": 5230,
      "ðŁı": 5231,
      "directory": 5232,
      "cmd": 5233,
      "assertNot": 5234,
      "]{": 5235,
      "Ġrespect": 5236,
      "Ġprev": 5237,
      "Ġli": 5238,
      "ivot": 5239,
      "train": 5240,
      "mptions": 5241,
      "EST": 5242,
      "essel": 5243,
      "construct": 5244,
      "criptor": 5245,
      "ĠClass": 5246,
      "constraint": 5247,
      "Found": 5248,
      "Ġ(?": 5249,
      "Ġselected": 5250,
      "ij": 5251,
      "Ġids": 5252,
      "\"]:": 5253,
      "Ġnormalized": 5254,
      "ĠTypeVar": 5255,
      "indows": 5256,
      "shared": 5257,
      "structure": 5258,
      "flag": 5259,
      "Ġrepeat": 5260,
      "Serializer": 5261,
      ";':": 5262,
      "petition": 5263,
      "tone": 5264,
      "Async": 5265,
      "inition": 5266,
      "Ġdims": 5267,
      "cesses": 5268,
      "fetch": 5269,
      "|'": 5270,
      "external": 5271,
      "Ġenvironment": 5272,
      "FEATURESET": 5273,
      "Ġgeneral": 5274,
      "Mapping": 5275,
      "fw": 5276,
      "tab": 5277,
      "Ġsequences": 5278,
      "wever": 5279,
      ";\":": 5280,
      "Ġcompiled": 5281,
      "Ġround": 5282,
      "skin": 5283,
      "xA": 5284,
      "Ġdst": 5285,
      "callable": 5286,
      "Ġleg": 5287,
      ":\\": 5288,
      "Order": 5289,
      "posed": 5290,
      "frozen": 5291,
      "olver": 5292,
      "basic": 5293,
      "tile": 5294,
      "actual": 5295,
      "rd": 5296,
      "JzKet": 5297,
      "Ġexclude": 5298,
      "ĠTimedelta": 5299,
      "Ġattentions": 5300,
      "3333": 5301,
      "Generation": 5302,
      "Ġrelease": 5303,
      "AM": 5304,
      "Mask": 5305,
      "generic": 5306,
      ">\"": 5307,
      "Bert": 5308,
      "xl": 5309,
      "ude": 5310,
      "ND": 5311,
      "correct": 5312,
      "Ġ\"{": 5313,
      "View": 5314,
      "Ġverbose": 5315,
      "project": 5316,
      "pyarrow": 5317,
      "Default": 5318,
      "Backend": 5319,
      ".],": 5320,
      "sheet": 5321,
      "matrices": 5322,
      "From": 5323,
      "xf": 5324,
      "Ġurllib": 5325,
      "ilities": 5326,
      "ĠBO": 5327,
      "BO": 5328,
      "Ġ23": 5329,
      "ĠToken": 5330,
      "\"`": 5331,
      "UBLE": 5332,
      "000000": 5333,
      "execute": 5334,
      "ĊĠĠĠĠĠĠĠĠĠĠĠĠĠĠĠĠĠĠĠĠĠĠĠĠĠĠĠĠĠĠĠĠĠĠĠĠĠĠĠĠĠĠĠĠ": 5335,
      "repo": 5336,
      "Ġ{})": 5337,
      "Ġpositional": 5338,
      "ĠThere": 5339,
      "Ġunicode": 5340,
      "][\"": 5341,
      "descriptor": 5342,
      "Ġast": 5343,
      "NaT": 5344,
      "control": 5345,
      "Audio": 5346,
      "sor": 5347,
      "Ġcap": 5348,
      "scatter": 5349,
      "compiler": 5350,
      "required": 5351,
      "precationWarning": 5352,
      "App": 5353,
      "Ġmypy": 5354,
      "Ġjoin": 5355,
      "DS": 5356,
      "jpg": 5357,
      "ights": 5358,
      "Ġgradient": 5359,
      "pid": 5360,
      "Manager": 5361,
      "End": 5362,
      "Sym": 5363,
      "ified": 5364,
      "Ġinf": 5365,
      "conn": 5366,
      "Ġdialect": 5367,
      "versed": 5368,
      "Failure": 5369,
      "TOR": 5370,
      "ĠMask": 5371,
      "assignment": 5372,
      "ãĥ": 5373,
      "ret": 5374,
      "Ġmanager": 5375,
      "Ġproject": 5376,
      "vas": 5377,
      "ĠDecimal": 5378,
      "()[": 5379,
      "ĠCU": 5380,
      "ird": 5381,
      "joint": 5382,
      "celerator": 5383,
      "Auth": 5384,
      "conj": 5385,
      "Ġtar": 5386,
      "Ġns": 5387,
      "Ġsampling": 5388,
      "kwds": 5389,
      "ĠVariableTracker": 5390,
      "stages": 5391,
      "ONE": 5392,
      "Ġrepresenting": 5393,
      "Doc": 5394,
      "ority": 5395,
      "tk": 5396,
      "}_": 5397,
      "inference": 5398,
      "circ": 5399,
      "qn": 5400,
      "det": 5401,
      "signal": 5402,
      "RETURN": 5403,
      "limits": 5404,
      "orphis": 5405,
      "rpc": 5406,
      "(['": 5407,
      "clause": 5408,
      "(\"_": 5409,
      "Batch": 5410,
      "GEN": 5411,
      "lier": 5412,
      "Ġrece": 5413,
      "gb": 5414,
      "oled": 5415,
      "Ġpairs": 5416,
      "ordered": 5417,
      "rotary": 5418,
      "Ġapprox": 5419,
      "Ġhapp": 5420,
      "Ġsession": 5421,
      "2016": 5422,
      "Ġshared": 5423,
      "Skip": 5424,
      "currence": 5425,
      "Ġverify": 5426,
      "Ġ*=": 5427,
      "dirs": 5428,
      "leep": 5429,
      "physics": 5430,
      "ality": 5431,
      "tained": 5432,
      "Ġpretty": 5433,
      "mbers": 5434,
      "take": 5435,
      "SO": 5436,
      "parts": 5437,
      "ane": 5438,
      "Ġproto": 5439,
      "Ġ'',": 5440,
      "Cannot": 5441,
      "setup": 5442,
      "backbone": 5443,
      "Ġpositions": 5444,
      "Ġsimplify": 5445,
      "Ġtakes": 5446,
      "chor": 5447,
      "verify": 5448,
      "]',": 5449,
      "alloc": 5450,
      "ĠEach": 5451,
      "Ġvariant": 5452,
      "Ġcenter": 5453,
      "egment": 5454,
      "upled": 5455,
      "modi": 5456,
      "moment": 5457,
      "Ġpartic": 5458,
      "Space": 5459,
      "Ġinternal": 5460,
      "Label": 5461,
      "decimal": 5462,
      "deriv": 5463,
      "ws": 5464,
      "quire": 5465,
      "234": 5466,
      "Kernel": 5467,
      "Ġcu": 5468,
      "plus": 5469,
      "git": 5470,
      "ĠMe": 5471,
      "EP": 5472,
      "ĠSIGN": 5473,
      "CausalLM": 5474,
      "HO": 5475,
      "Constant": 5476,
      "PAT": 5477,
      "Ġmatrices": 5478,
      "ceback": 5479,
      "ĠOperator": 5480,
      "Ġsent": 5481,
      "Ġcause": 5482,
      "Ġtesting": 5483,
      "Proto": 5484,
      "Descriptor": 5485,
      "trip": 5486,
      "'''": 5487,
      "SDP": 5488,
      "fit": 5489,
      "Ġruntime": 5490,
      "metry": 5491,
      "Ġspatial": 5492,
      "capi": 5493,
      "language": 5494,
      "mitted": 5495,
      "media": 5496,
      "Ġcoefficients": 5497,
      "reason": 5498,
      "Ġexceptions": 5499,
      "([-": 5500,
      "agg": 5501,
      "++": 5502,
      "]\"": 5503,
      "mpf": 5504,
      "Ġproper": 5505,
      "access": 5506,
      "upy": 5507,
      "constraints": 5508,
      "UE": 5509,
      "Ġuntil": 5510,
      "Ġcat": 5511,
      "constants": 5512,
      "`)": 5513,
      "randn": 5514,
      "Eq": 5515,
      "Ġsection": 5516,
      "asing": 5517,
      "Ġpower": 5518,
      "Ġrepla": 5519,
      "diagonal": 5520,
      "Alias": 5521,
      "way": 5522,
      "ingular": 5523,
      "linspace": 5524,
      "Ġdetect": 5525,
      "Ġmesh": 5526,
      "Ġsock": 5527,
      "sem": 5528,
      "255": 5529,
      "Ġfx": 5530,
      "meg": 5531,
      "ĠĠĠĠĠĠĠĠĠĠĠĠĠĠ": 5532,
      "Ġdraw": 5533,
      "ĠPlease": 5534,
      "999": 5535,
      "ðŁļ¨ðŁļ¨ðŁļ¨ðŁļ¨ðŁļ¨ðŁļ¨ðŁļ¨ðŁļ¨ðŁļ¨ðŁļ¨ðŁļ¨ðŁļ¨ðŁļ¨ðŁļ¨ðŁļ¨ðŁļ¨ðŁļ¨ðŁļ¨ðŁļ¨ðŁļ¨ðŁļ¨ðŁļ¨ðŁļ¨ðŁļ¨ðŁļ¨ðŁļ¨ðŁļ¨ðŁļ¨ðŁļ¨ðŁļ¨ðŁļ¨ðŁļ¨": 5536,
      "Ġdownload": 5537,
      "ĠFloat": 5538,
      "tic": 5539,
      "quote": 5540,
      "DiGraph": 5541,
      "]`,": 5542,
      "hable": 5543,
      "codec": 5544,
      "Ġrope": 5545,
      "Ġgamma": 5546,
      "ĠConv": 5547,
      "dimage": 5548,
      "akref": 5549,
      "Interval": 5550,
      "mba": 5551,
      "FUNCT": 5552,
      "istics": 5553,
      "va": 5554,
      "Infinity": 5555,
      "subtype": 5556,
      "public": 5557,
      "125": 5558,
      "disable": 5559,
      "Ġsc": 5560,
      "ĠArg": 5561,
      "gorithms": 5562,
      "Style": 5563,
      "Ġscheme": 5564,
      "Ġintegers": 5565,
      "exclude": 5566,
      "ĠPIL": 5567,
      "Cond": 5568,
      "Ġminim": 5569,
      "sync": 5570,
      "defs": 5571,
      "Ġlock": 5572,
      "Ġknow": 5573,
      "Exp": 5574,
      "Ġtimedelta": 5575,
      "contin": 5576,
      "âĸĪ": 5577,
      "Ġsl": 5578,
      "threshold": 5579,
      "Ġdiv": 5580,
      "Ġhelper": 5581,
      "bfloat": 5582,
      "traceback": 5583,
      "cpp": 5584,
      "Detr": 5585,
      "Ġrhs": 5586,
      "Del": 5587,
      "Ġbl": 5588,
      "fact": 5589,
      "Ġdoctest": 5590,
      "Ġrep": 5591,
      "ĠBu": 5592,
      "ĊĠĠĠĠĠĠĠĠĠĠĠĠĠĠĠĠĠĠĠĠĠĠĠĠĠĠĠĠĠĠ": 5593,
      "coords": 5594,
      "ĠNA": 5595,
      "Ġusage": 5596,
      "gradient": 5597,
      "Ġoffsets": 5598,
      "Ġdue": 5599,
      "strides": 5600,
      "FILE": 5601,
      "quot": 5602,
      "Ġsetup": 5603,
      ",-": 5604,
      "begin": 5605,
      "rich": 5606,
      "MAPP": 5607,
      "Ġconstants": 5608,
      "[(": 5609,
      "gens": 5610,
      "compare": 5611,
      "ĠInitialize": 5612,
      "Ġshard": 5613,
      "Ġdetermine": 5614,
      "ĠMapping": 5615,
      "TIME": 5616,
      "Ġenabled": 5617,
      "compat": 5618,
      "poch": 5619,
      "Ġquantized": 5620,
      "variance": 5621,
      "Ġexactly": 5622,
      "ilon": 5623,
      "91": 5624,
      "conf": 5625,
      "072": 5626,
      "Ġactivation": 5627,
      "Ġdescript": 5628,
      "trie": 5629,
      "enable": 5630,
      "Ġevents": 5631,
      "ĠPyTorch": 5632,
      "Ġexplicitly": 5633,
      "mand": 5634,
      "alog": 5635,
      "Ġinside": 5636,
      "CC": 5637,
      "Ġcha": 5638,
      "ĠNotGiven": 5639,
      "ASS": 5640,
      "]})": 5641,
      "={\"": 5642,
      "CI": 5643,
      "RMS": 5644,
      "dx": 5645,
      "abstract": 5646,
      "Ġcomponent": 5647,
      "He": 5648,
      "Min": 5649,
      "timm": 5650,
      "ender": 5651,
      "]\")": 5652,
      "numer": 5653,
      "Ġseconds": 5654,
      "Distribution": 5655,
      "gpu": 5656,
      "Ġinstances": 5657,
      "Ġlocation": 5658,
      "Ġreverse": 5659,
      "outube": 5660,
      "Ġ'\\\\": 5661,
      "annotations": 5662,
      "Ġfont": 5663,
      "pred": 5664,
      "00000": 5665,
      "âĸģâĸģ": 5666,
      "verter": 5667,
      "Ġiteration": 5668,
      "></": 5669,
      "401": 5670,
      "Quant": 5671,
      "hints": 5672,
      "Ġthreading": 5673,
      "Ġuniv": 5674,
      "CP": 5675,
      "elem": 5676,
      "ilter": 5677,
      "install": 5678,
      "Ġ::": 5679,
      "Ġsuccess": 5680,
      "chron": 5681,
      "Ġassociated": 5682,
      "disc": 5683,
      "Ġdocstring": 5684,
      "Ġtgt": 5685,
      "ĠAnnotated": 5686,
      "xb": 5687,
      "lack": 5688,
      "initeSet": 5689,
      "'[": 5690,
      "jor": 5691,
      "decay": 5692,
      "Ġpublic": 5693,
      "Ġwrapped": 5694,
      "Ġclean": 5695,
      "ĠNorm": 5696,
      "Ġrout": 5697,
      "ERR": 5698,
      "TESTS": 5699,
      "SQL": 5700,
      "remote": 5701,
      "Ġsubprocess": 5702,
      "Sp": 5703,
      "Ġderiv": 5704,
      "ĠOutput": 5705,
      "upported": 5706,
      "Ġregex": 5707,
      "Ġeager": 5708,
      "nsample": 5709,
      "signed": 5710,
      "proc": 5711,
      "tuples": 5712,
      "identity": 5713,
      "ared": 5714,
      "Ġ31": 5715,
      "Ġlater": 5716,
      "Ġcomputing": 5717,
      "running": 5718,
      "assertIsInstance": 5719,
      "CR": 5720,
      "[::": 5721,
      "some": 5722,
      "ĠMin": 5723,
      "Ġ``'": 5724,
      "Ġprobability": 5725,
      "Ġpatches": 5726,
      "([],": 5727,
      "Ġlet": 5728,
      "OS": 5729,
      "Ġouter": 5730,
      "okup": 5731,
      "Ġactually": 5732,
      "called": 5733,
      "Ġyet": 5734,
      "medium": 5735,
      "SK": 5736,
      "Ġ00": 5737,
      "ĠCPU": 5738,
      "))/": 5739,
      "bet": 5740,
      "Generator": 5741,
      "IA": 5742,
      "Ġpred": 5743,
      "TESTFN": 5744,
      "WOR": 5745,
      "Ġrest": 5746,
      "password": 5747,
      "ĠCUDA": 5748,
      "VL": 5749,
      "bn": 5750,
      "ĠAd": 5751,
      "Ġcover": 5752,
      "distance": 5753,
      "extended": 5754,
      "Ġpers": 5755,
      "Ġtuples": 5756,
      "]`": 5757,
      "Ġring": 5758,
      "Ġcompare": 5759,
      "effect": 5760,
      "choices": 5761,
      "setdefault": 5762,
      "Ġstacklevel": 5763,
      "Ġquot": 5764,
      "ources": 5765,
      "ĠOtherwise": 5766,
      "\"},": 5767,
      "Ġgm": 5768,
      "implementation": 5769,
      "Ġattrs": 5770,
      "radius": 5771,
      "Ġappear": 5772,
      "dest": 5773,
      "Ġagainst": 5774,
      "bstract": 5775,
      "Ġ:=": 5776,
      "ĠXXX": 5777,
      "Ġtermin": 5778,
      "ork": 5779,
      "Ġitself": 5780,
      "peated": 5781,
      "ĠMax": 5782,
      "Protocol": 5783,
      "ĠSelf": 5784,
      "hooks": 5785,
      "ĊĠĠĠĠĠĠĠĠĠĠĠĠĠĠĠĠĠĠĠĠĠĠĠĠĠĠĠĠĠĠĠĠ": 5786,
      "Ġaccording": 5787,
      "Ġexpressions": 5788,
      "Ġ{},": 5789,
      "Ġalternative": 5790,
      "RMSNorm": 5791,
      "tar": 5792,
      "ĠGeneric": 5793,
      "LC": 5794,
      "cancel": 5795,
      "Ġacross": 5796,
      "SET": 5797,
      "Ġinstalled": 5798,
      "Do": 5799,
      "Ġstdout": 5800,
      "Ġstored": 5801,
      "ffff": 5802,
      "ĠError": 5803,
      "ĠMake": 5804,
      "abilities": 5805,
      "]}": 5806,
      "Ġsimilar": 5807,
      "otion": 5808,
      "ĠMat": 5809,
      "Ġdouble": 5810,
      "Ġpla": 5811,
      "Ġdot": 5812,
      "uning": 5813,
      "()}": 5814,
      "ĠPermutation": 5815,
      "Ġestim": 5816,
      "Ġtrig": 5817,
      "Ġlatex": 5818,
      "stanti": 5819,
      "MAPPING": 5820,
      "inp": 5821,
      ")(\\": 5822,
      "aggle": 5823,
      "Ġâİ": 5824,
      "orph": 5825,
      "Ġproperty": 5826,
      "returns": 5827,
      "Item": 5828,
      "erance": 5829,
      "gebra": 5830,
      "dumps": 5831,
      "Ġinterface": 5832,
      "require": 5833,
      "Ġtraceback": 5834,
      "SD": 5835,
      "Types": 5836,
      "Ġallows": 5837,
      "typ": 5838,
      "REE": 5839,
      "SSL": 5840,
      "Ġascii": 5841,
      "logging": 5842,
      "ĠHo": 5843,
      "ĠDRAW": 5844,
      "uniform": 5845,
      "Ġdocumentation": 5846,
      "mid": 5847,
      "Ġinp": 5848,
      "codegen": 5849,
      "Ġcomment": 5850,
      ",'": 5851,
      "hint": 5852,
      "Ġappend": 5853,
      "Ġcounter": 5854,
      "worker": 5855,
      "YR": 5856,
      "Ġpow": 5857,
      "softmax": 5858,
      ".')": 5859,
      "player": 5860,
      "elementary": 5861,
      "bitrary": 5862,
      "dimensional": 5863,
      "MIN": 5864,
      "Ġrefer": 5865,
      "Loss": 5866,
      "AI": 5867,
      "clusive": 5868,
      "Ġpredict": 5869,
      "Ġquantization": 5870,
      "ranges": 5871,
      "owner": 5872,
      ")`.": 5873,
      "logical": 5874,
      "yntaxError": 5875,
      "dialect": 5876,
      "Rot": 5877,
      "WAR": 5878,
      "settings": 5879,
      "cases": 5880,
      "Ġdenom": 5881,
      "Ġreshape": 5882,
      "enc": 5883,
      "peline": 5884,
      "You": 5885,
      "ĠACT": 5886,
      "Ġexecution": 5887,
      "crete": 5888,
      "GS": 5889,
      "peri": 5890,
      "ferFunction": 5891,
      "Ġentity": 5892,
      "Offset": 5893,
      "Ġsend": 5894,
      "spam": 5895,
      "ĠIndices": 5896,
      "aving": 5897,
      "dup": 5898,
      "quad": 5899,
      "Ġ'/": 5900,
      "Ġcomplete": 5901,
      "calls": 5902,
      "Ġcomputation": 5903,
      "ĠOrderedSet": 5904,
      "eds": 5905,
      "ampler": 5906,
      "Ġreset": 5907,
      "Ġmoment": 5908,
      "\"]),": 5909,
      "specific": 5910,
      "__\",": 5911,
      "creasing": 5912,
      "Que": 5913,
      "Ġ21": 5914,
      "dl": 5915,
      "Ġhalf": 5916,
      "agraph": 5917,
      "Ġthreshold": 5918,
      "Ġdeep": 5919,
      "Def": 5920,
      "Ġbc": 5921,
      "transformers": 5922,
      "ĠSparse": 5923,
      "Sign": 5924,
      "**-": 5925,
      "Ġroots": 5926,
      "Mem": 5927,
      "interpolate": 5928,
      "2012": 5929,
      "fsdp": 5930,
      "ĊĠĠĠĠĠĠĠĠĠĠĠĠĠĠĠĠĠĠĠĠĠĠĠĠĠĠĠĠĠĠĠĠĠ": 5931,
      "\">": 5932,
      "GB": 5933,
      "Ġchanges": 5934,
      "Ġattemp": 5935,
      "choice": 5936,
      "IVEN": 5937,
      "colors": 5938,
      "Ġaddress": 5939,
      "ĠDRAWINGS": 5940,
      "ivity": 5941,
      "Values": 5942,
      "Ġcli": 5943,
      "verbose": 5944,
      "isnan": 5945,
      "mac": 5946,
      "INF": 5947,
      "GIVEN": 5948,
      "intro": 5949,
      "lexers": 5950,
      "rvs": 5951,
      "Ġinterpolation": 5952,
      "Ġmetr": 5953,
      "ĠOne": 5954,
      "windows": 5955,
      "sr": 5956,
      "pagate": 5957,
      "counts": 5958,
      "ĠFa": 5959,
      "endswith": 5960,
      "\\\\.)?": 5961,
      "itude": 5962,
      "Ġ22": 5963,
      "AND": 5964,
      "gemm": 5965,
      "Ġdilation": 5966,
      "nonzero": 5967,
      "grouped": 5968,
      "produ": 5969,
      "setitem": 5970,
      "numbers": 5971,
      "ificate": 5972,
      "Ġcodegen": 5973,
      "ĠLa": 5974,
      "board": 5975,
      "backed": 5976,
      "Ġday": 5977,
      "^^^^": 5978,
      "bmm": 5979,
      "Ġlists": 5980,
      "omic": 5981,
      "Ġcomparison": 5982,
      "big": 5983,
      "Ġsetattr": 5984,
      "Ġcategories": 5985,
      "ĠFieldMetadata": 5986,
      "relu": 5987,
      "distribution": 5988,
      "xd": 5989,
      "Ġlevels": 5990,
      "NetworkX": 5991,
      "oolean": 5992,
      "NotFound": 5993,
      "Only": 5994,
      "WS": 5995,
      "nap": 5996,
      "Ġproblem": 5997,
      "hell": 5998,
      "dicate": 5999,
      ">\",": 6000,
      "Identity": 6001,
      "bw": 6002,
      "expectedFailure": 6003,
      "ragma": 6004,
      "uster": 6005,
      "Ġdistance": 6006,
      "ngine": 6007,
      "Ġannotation": 6008,
      "Random": 6009,
      "Ġintegral": 6010,
      "Args": 6011,
      "Ġinitialization": 6012,
      "nc": 6013,
      "ann": 6014,
      "Ġra": 6015,
      "Ġdays": 6016,
      "fr": 6017,
      "visit": 6018,
      "VariableFunctions": 6019,
      "]},": 6020,
      "Ġpassing": 6021,
      "Ġplot": 6022,
      "unpack": 6023,
      "Ġ2048": 6024,
      "legacy": 6025,
      "GET": 6026,
      "TYPES": 6027,
      "Ġgraphs": 6028,
      "ived": 6029,
      "micro": 6030,
      "ov": 6031,
      "Ġelem": 6032,
      "crop": 6033,
      "draw": 6034,
      "quired": 6035,
      "unknown": 6036,
      "Tree": 6037,
      "mixed": 6038,
      "Ġort": 6039,
      "('-": 6040,
      "Ġones": 6041,
      "tas": 6042,
      "Ġstrip": 6043,
      "Ġmodified": 6044,
      "Ġdivis": 6045,
      "eye": 6046,
      "Ġ}]": 6047,
      "ĠSum": 6048,
      "ĠCO": 6049,
      "Ġcollection": 6050,
      "CHAR": 6051,
      "8859": 6052,
      "MODE": 6053,
      "Delta": 6054,
      "ĠST": 6055,
      "Run": 6056,
      "objects": 6057,
      "foreach": 6058,
      "dummy": 6059,
      "Ġcut": 6060,
      "Ġclassification": 6061,
      "COL": 6062,
      "Ġvery": 6063,
      "hyper": 6064,
      "ners": 6065,
      "Ġ\"/": 6066,
      "ĠDOUBLE": 6067,
      "_:": 6068,
      "padded": 6069,
      "ĠBOX": 6070,
      "âİ": 6071,
      "Ġndim": 6072,
      "Ġfrequency": 6073,
      "Ġplease": 6074,
      "limiter": 6075,
      "atol": 6076,
      "Ġclear": 6077,
      "van": 6078,
      "entries": 6079,
      "boolean": 6080,
      "rb": 6081,
      "Ġsquare": 6082,
      "ĠGemma": 6083,
      "Ġ</": 6084,
      "Ġframes": 6085,
      ")}\"": 6086,
      "Vector": 6087,
      "resolve": 6088,
      "commit": 6089,
      "once": 6090,
      "pairs": 6091,
      "'``": 6092,
      "flash": 6093,
      "ERS": 6094,
      "Ġregular": 6095,
      "opts": 6096,
      "toarray": 6097,
      "Ġfallback": 6098,
      "Ġconst": 6099,
      "Ġmessages": 6100,
      "Ġappropri": 6101,
      "inel": 6102,
      "erature": 6103,
      "Ġstarting": 6104,
      "Ġbranch": 6105,
      "Ġeigen": 6106,
      "Ġwarn": 6107,
      "amily": 6108,
      "Ġseen": 6109,
      "usage": 6110,
      "reader": 6111,
      "Ġoperators": 6112,
      "Server": 6113,
      "heel": 6114,
      "fiers": 6115,
      "pip": 6116,
      "acc": 6117,
      "logue": 6118,
      "1111": 6119,
      "patterns": 6120,
      "projection": 6121,
      "chars": 6122,
      "Failed": 6123,
      "registry": 6124,
      "Ġcategory": 6125,
      "osite": 6126,
      "month": 6127,
      ":])": 6128,
      "AX": 6129,
      "Ġunderlying": 6130,
      "Ġconvolution": 6131,
      ">>>": 6132,
      "ationship": 6133,
      "enate": 6134,
      "atted": 6135,
      "144": 6136,
      "\")),": 6137,
      "Ġindexer": 6138,
      "Ġiterator": 6139,
      "ulate": 6140,
      "ARE": 6141,
      "validator": 6142,
      "builder": 6143,
      "[:]": 6144,
      "ULE": 6145,
      "methods": 6146,
      "terms": 6147,
      "Ġdifference": 6148,
      "Ġbeg": 6149,
      "Ġloaded": 6150,
      "ĠExpr": 6151,
      "rfc": 6152,
      "Ġchanged": 6153,
      "angular": 6154,
      "writel": 6155,
      "Ġsat": 6156,
      "Ġdat": 6157,
      "Ġhyper": 6158,
      "Ġcoordinates": 6159,
      "ĠDoc": 6160,
      "push": 6161,
      "Ġprepare": 6162,
      "mix": 6163,
      "ĠProcess": 6164,
      "CD": 6165,
      "stmt": 6166,
      "ully": 6167,
      "CLIP": 6168,
      "grees": 6169,
      "ĠNumPy": 6170,
      "odal": 6171,
      "}/": 6172,
      "Ġrequested": 6173,
      "ighb": 6174,
      "Ġproperties": 6175,
      "orphic": 6176,
      "ĊĊĠĠ": 6177,
      "ula": 6178,
      "Ġsem": 6179,
      "âĸĪâĸĪ": 6180,
      "square": 6181,
      "prev": 6182,
      "feed": 6183,
      "LD": 6184,
      "oid": 6185,
      "EFT": 6186,
      "Reader": 6187,
      "private": 6188,
      "_)": 6189,
      "Ġloader": 6190,
      "TV": 6191,
      "hex": 6192,
      "Ġbits": 6193,
      "acter": 6194,
      "SKIP": 6195,
      "Ġvectors": 6196,
      "Dispatch": 6197,
      "orphism": 6198,
      "}')": 6199,
      "Ġprogress": 6200,
      "Ġ%(": 6201,
      "pedia": 6202,
      "Ġdense": 6203,
      "ĠSQL": 6204,
      "ĠBack": 6205,
      "Ġcorrectly": 6206,
      "Ġtags": 6207,
      "Gemma": 6208,
      "Kind": 6209,
      "rhs": 6210,
      "?\\": 6211,
      "rational": 6212,
      "Length": 6213,
      "ĠSam": 6214,
      "ĠExtension": 6215,
      "mapper": 6216,
      "Ġglobals": 6217,
      "ĠNetworkX": 6218,
      "classifier": 6219,
      "efficient": 6220,
      "integral": 6221,
      "optimizer": 6222,
      "Ġfatal": 6223,
      "(\"\\": 6224,
      "ĠMul": 6225,
      "Ġsets": 6226,
      "cremental": 6227,
      "Ġcycle": 6228,
      "Ġpip": 6229,
      "bian": 6230,
      "ĠPiecewise": 6231,
      "berta": 6232,
      "Ġpytree": 6233,
      "Ġoverwrite": 6234,
      "spatial": 6235,
      "Coupled": 6236,
      "expect": 6237,
      "periment": 6238,
      "codings": 6239,
      "checkpointing": 6240,
      "recv": 6241,
      "Ġfails": 6242,
      "okies": 6243,
      "Ġtrain": 6244,
      "2008": 6245,
      "Ġidentity": 6246,
      "clamp": 6247,
      "Ġrs": 6248,
      "ĠWindows": 6249,
      "CS": 6250,
      "Ġversions": 6251,
      "Ġaround": 6252,
      "~~~~~~~~~~~~~~~~": 6253,
      "300": 6254,
      "ĠConfig": 6255,
      "Ġspeed": 6256,
      "tolist": 6257,
      "Ġgreater": 6258,
      "Ġtd": 6259,
      "Ġmpmath": 6260,
      "super": 6261,
      "folder": 6262,
      "under": 6263,
      "Ġ[('": 6264,
      "rier": 6265,
      "Ġdecorator": 6266,
      "ĠDatetimeIndex": 6267,
      "MOD": 6268,
      "computed": 6269,
      "Range": 6270,
      "TF": 6271,
      "ĠRequest": 6272,
      "Ġfrozenset": 6273,
      "ially": 6274,
      "Ġnb": 6275,
      "quential": 6276,
      "()):": 6277,
      "ĠBe": 6278,
      "Ġcompatible": 6279,
      "which": 6280,
      "dat": 6281,
      "orization": 6282,
      "ĠWith": 6283,
      "asn": 6284,
      "idence": 6285,
      "Ġfloating": 6286,
      "transformer": 6287,
      "Ġabsolute": 6288,
      "swap": 6289,
      "watch": 6290,
      "Ġcodes": 6291,
      "DESC": 6292,
      "Ġendpoint": 6293,
      "=%": 6294,
      "evalu": 6295,
      "Ġstderr": 6296,
      "phi": 6297,
      "ĠFake": 6298,
      "Ġ<<": 6299,
      "@_": 6300,
      "Convert": 6301,
      "RED": 6302,
      "Ġprivate": 6303,
      "rm": 6304,
      "Ġdiagonal": 6305,
      "Ġ\"'": 6306,
      "lazy": 6307,
      "cost": 6308,
      "ĠBeta": 6309,
      "NaN": 6310,
      "Ġ4096": 6311,
      "Ġparticular": 6312,
      "+',": 6313,
      "Timestamp": 6314,
      "untyped": 6315,
      "Ġcompiler": 6316,
      "Ġcandidate": 6317,
      "Ġpassword": 6318,
      "UTF": 6319,
      "ĠArgument": 6320,
      "cogn": 6321,
      "ĠUp": 6322,
      "loading": 6323,
      "MAGEN": 6324,
      "MAGENET": 6325,
      "Ġconversion": 6326,
      "Ġcost": 6327,
      "Ġchecks": 6328,
      "cover": 6329,
      "filer": 6330,
      "slow": 6331,
      "Ġrate": 6332,
      "traction": 6333,
      "Ġvert": 6334,
      "approx": 6335,
      "ugate": 6336,
      "placeholder": 6337,
      "eb": 6338,
      "Ġ000": 6339,
      "__}": 6340,
      "SION": 6341,
      "archive": 6342,
      "js": 6343,
      "Ġnever": 6344,
      "globals": 6345,
      "Params": 6346,
      "statistic": 6347,
      "Generic": 6348,
      "ILLIC": 6349,
      "YRILLIC": 6350,
      "Proxy": 6351,
      "------------": 6352,
      "FLO": 6353,
      "fallback": 6354,
      "MLP": 6355,
      "ortran": 6356,
      "separ": 6357,
      "quality": 6358,
      "Ġusers": 6359,
      "ĠAnd": 6360,
      "ĠSample": 6361,
      "Ġworker": 6362,
      "Ġangle": 6363,
      "ĠRun": 6364,
      "ĠLay": 6365,
      "baz": 6366,
      "Ġnetworkx": 6367,
      "Ġapproxim": 6368,
      "Client": 6369,
      "ARK": 6370,
      "Ġupdated": 6371,
      "quantization": 6372,
      "star": 6373,
      "Ġpragma": 6374,
      "Ġcodecs": 6375,
      "Ġsteps": 6376,
      "Ġtriton": 6377,
      "ĠLinear": 6378,
      "FIG": 6379,
      "legend": 6380,
      "qkv": 6381,
      "coord": 6382,
      "INTER": 6383,
      "Option": 6384,
      "Tool": 6385,
      "cales": 6386,
      "ModuleList": 6387,
      "System": 6388,
      "arest": 6389,
      "plotlib": 6390,
      "`).": 6391,
      "Ġind": 6392,
      "Ġreq": 6393,
      "Ġincluded": 6394,
      "doctest": 6395,
      "ky": 6396,
      "Ġdetermin": 6397,
      "{\\": 6398,
      "Ġrequests": 6399,
      "ao": 6400,
      "onic": 6401,
      "ĠSize": 6402,
      "refs": 6403,
      "ein": 6404,
      "Ġ})": 6405,
      "subprocess": 6406,
      "Ġbetter": 6407,
      ".',": 6408,
      "Ġhist": 6409,
      "VisionConfig": 6410,
      "eo": 6411,
      "sure": 6412,
      "Ġbi": 6413,
      "ĠReference": 6414,
      "Date": 6415,
      "My": 6416,
      "OK": 6417,
      "__:": 6418,
      "Conditional": 6419,
      "Ġ40": 6420,
      "sleep": 6421,
      "pygments": 6422,
      "properties": 6423,
      "Strategy": 6424,
      "ĠĠĠĠĠĠĠĠĠĠĠĠĠ": 6425,
      "199": 6426,
      "Ġisn": 6427,
      "ITE": 6428,
      "ango": 6429,
      "Ġ28": 6430,
      "ĠValid": 6431,
      "oring": 6432,
      "Script": 6433,
      "bbox": 6434,
      "ĠSE": 6435,
      "New": 6436,
      "best": 6437,
      "ĠOver": 6438,
      "Axis": 6439,
      "hing": 6440,
      "hello": 6441,
      "BytesIO": 6442,
      "Ġfalse": 6443,
      "prom": 6444,
      "ĠInvalid": 6445,
      "Ġpick": 6446,
      "literal": 6447,
      "yb": 6448,
      "Ġpermute": 6449,
      "Rule": 6450,
      "dump": 6451,
      "writer": 6452,
      "Loader": 6453,
      "Ġplaylist": 6454,
      "lope": 6455,
      "Ġdescrib": 6456,
      "fct": 6457,
      "tml": 6458,
      "Ġ29": 6459,
      "ĠOn": 6460,
      "Ġdataclasses": 6461,
      "Ġbounding": 6462,
      "Ġconsole": 6463,
      "Ġsep": 6464,
      "optimize": 6465,
      "Sta": 6466,
      "ĠRead": 6467,
      "Box": 6468,
      "xE": 6469,
      "inverse": 6470,
      "ĠFiniteSet": 6471,
      "parsers": 6472,
      "MENT": 6473,
      "}`": 6474,
      "rounds": 6475,
      "Ġ26": 6476,
      "Ġoptimize": 6477,
      "sources": 6478,
      "ĠBlock": 6479,
      "ĠHand": 6480,
      "ĠNormal": 6481,
      "Ġcr": 6482,
      "Ġow": 6483,
      "ĠShape": 6484,
      "Ġwp": 6485,
      "ĠTable": 6486,
      "Mult": 6487,
      "secret": 6488,
      "Ġcmd": 6489,
      "Ġexamples": 6490,
      "Ġworld": 6491,
      "Read": 6492,
      "AG": 6493,
      "Ġlengths": 6494,
      "shot": 6495,
      "Ġaux": 6496,
      "Ġwin": 6497,
      "Ġwords": 6498,
      "Optim": 6499,
      "Ġthree": 6500,
      "]]),": 6501,
      "Part": 6502,
      "Single": 6503,
      "Ġdid": 6504,
      "Ġ27": 6505,
      "Ġ255": 6506,
      "river": 6507,
      "latex": 6508,
      "sf": 6509,
      "iny": 6510,
      "parallel": 6511,
      "Device": 6512,
      "Ġbucket": 6513,
      "ĠInitializing": 6514,
      "atives": 6515,
      "Ġapi": 6516,
      "']:": 6517,
      "(('": 6518,
      "Ġ----------------------------------------------------------------": 6519,
      "cip": 6520,
      "sigma": 6521,
      "ordinate": 6522,
      "bos": 6523,
      "ĠCur": 6524,
      "rec": 6525,
      "Ġdelete": 6526,
      "ĊĠĠĠĠĠĠĠĠĠĠĠĠĠĠĠĠĠĠĠĠĠĠĠĠĠĠĠĠĠĠĠĠĠĠ": 6527,
      "bins": 6528,
      "reverse": 6529,
      "Ġresample": 6530,
      "moid": 6531,
      "Normal": 6532,
      "={'": 6533,
      "=\"\"\"": 6534,
      "Cho": 6535,
      "Ġer": 6536,
      "Ġep": 6537,
      "1024": 6538,
      "adding": 6539,
      "Ġlogic": 6540,
      "Ġhandling": 6541,
      "Ġvals": 6542,
      "XT": 6543,
      "utc": 6544,
      "contents": 6545,
      "WN": 6546,
      "tre": 6547,
      "ductor": 6548,
      "Decimal": 6549,
      "?',": 6550,
      "All": 6551,
      "Ġcir": 6552,
      "ĠAss": 6553,
      "?#": 6554,
      "Ġstacked": 6555,
      "acobian": 6556,
      "moe": 6557,
      "Ġappropriate": 6558,
      "ĠOptim": 6559,
      "cation": 6560,
      "ĠQuant": 6561,
      "ĠRot": 6562,
      "matches": 6563,
      "Cur": 6564,
      "also": 6565,
      "locals": 6566,
      "alchemy": 6567,
      "initializer": 6568,
      "Template": 6569,
      "Ġown": 6570,
      "change": 6571,
      "subtitles": 6572,
      "interpre": 6573,
      "connected": 6574,
      "written": 6575,
      "dients": 6576,
      "Ġliteral": 6577,
      "ffine": 6578,
      "ĠRange": 6579,
      "Ġresource": 6580,
      "Div": 6581,
      "rtol": 6582,
      "kernels": 6583,
      "should": 6584,
      "aging": 6585,
      "Ġmapped": 6586,
      "Ġhttpx": 6587,
      "ĠIterator": 6588,
      "Ġcert": 6589,
      "Ġdev": 6590,
      "ORS": 6591,
      "Mon": 6592,
      "Ġ``(": 6593,
      "Ġ60": 6594,
      "Ġsegmentation": 6595,
      "ua": 6596,
      "resolution": 6597,
      "ugment": 6598,
      "ForCausalLM": 6599,
      "culate": 6600,
      "PAR": 6601,
      "integrate": 6602,
      "Ġaliases": 6603,
      "'(?": 6604,
      "Ġrecent": 6605,
      "Ġbra": 6606,
      "ĠGroup": 6607,
      "ql": 6608,
      "Ġdensity": 6609,
      "Ġdirected": 6610,
      "Uns": 6611,
      "fold": 6612,
      "ĠCYRILLIC": 6613,
      "Ġdirection": 6614,
      "Ġimplicit": 6615,
      "lens": 6616,
      "digest": 6617,
      "mmutable": 6618,
      "transport": 6619,
      "ĠTr": 6620,
      "PC": 6621,
      "Ġdummy": 6622,
      "how": 6623,
      "floating": 6624,
      "fixed": 6625,
      "asyncio": 6626,
      "olation": 6627,
      "Ġarbitrary": 6628,
      "Ed": 6629,
      "lhs": 6630,
      "Ġip": 6631,
      "Ġfun": 6632,
      "Ġctypes": 6633,
      "Ġ\"#": 6634,
      "Ġincluding": 6635,
      "Ġcredentials": 6636,
      "resample": 6637,
      "usic": 6638,
      "nu": 6639,
      "Ġtl": 6640,
      "Ġvalidation": 6641,
      "()`": 6642,
      "Ġpaper": 6643,
      "Ġlonger": 6644,
      "IF": 6645,
      "Ġremote": 6646,
      "Ġlex": 6647,
      "based": 6648,
      "NOT": 6649,
      "even": 6650,
      "ĠALL": 6651,
      "subTest": 6652,
      "polynomial": 6653,
      ")},": 6654,
      "ĠCode": 6655,
      "voke": 6656,
      "Ġremaining": 6657,
      "Count": 6658,
      "SH": 6659,
      "rs": 6660,
      "Ġ\"(": 6661,
      "/>": 6662,
      "400": 6663,
      "Dropout": 6664,
      "asure": 6665,
      "Ġtp": 6666,
      "OF": 6667,
      "des": 6668,
      "Ġdefinition": 6669,
      "resource": 6670,
      "IVE": 6671,
      "minimum": 6672,
      "Ġtimestamp": 6673,
      "ypot": 6674,
      "Ġbackbone": 6675,
      "here": 6676,
      "Ġput": 6677,
      "002": 6678,
      "NotImplemented": 6679,
      "Ġstrides": 6680,
      "$',": 6681,
      "categorical": 6682,
      "ĠObject": 6683,
      "Ġcurr": 6684,
      "COMP": 6685,
      "Vec": 6686,
      "Ġ...],": 6687,
      "Ġresized": 6688,
      "configure": 6689,
      "fan": 6690,
      "============": 6691,
      "Ġcontents": 6692,
      "Ġ'')": 6693,
      "region": 6694,
      "testcapi": 6695,
      "Ġsa": 6696,
      "dictions": 6697,
      "Ġassume": 6698,
      "tb": 6699,
      "ĠValue": 6700,
      "ĠApi": 6701,
      "Layout": 6702,
      "fused": 6703,
      "pointer": 6704,
      "pkg": 6705,
      "ably": 6706,
      "Former": 6707,
      "plain": 6708,
      "Header": 6709,
      "FORMAT": 6710,
      "erm": 6711,
      "Ġopts": 6712,
      "ĠBaseModelOutputWith": 6713,
      "saved": 6714,
      "lict": 6715,
      "Ġcomponents": 6716,
      "Child": 6717,
      "symmetric": 6718,
      "claration": 6719,
      "dps": 6720,
      "Ġdataclass": 6721,
      "done": 6722,
      "Ġkeepdim": 6723,
      "positional": 6724,
      "Ġmodify": 6725,
      "Level": 6726,
      "season": 6727,
      "setattr": 6728,
      "mutable": 6729,
      "RIP": 6730,
      "Ġmixed": 6731,
      "Ġequation": 6732,
      "mega": 6733,
      "PL": 6734,
      "ssib": 6735,
      "sharded": 6736,
      "Ġbegin": 6737,
      "Clause": 6738,
      "area": 6739,
      "Raw": 6740,
      "aot": 6741,
      "Ġinherit": 6742,
      "rescale": 6743,
      "variables": 6744,
      "Cleanup": 6745,
      "MET": 6746,
      "sec": 6747,
      "Ġcanonical": 6748,
      "ĠMatrixSymbol": 6749,
      "375": 6750,
      "))))": 6751,
      "Ġimportlib": 6752,
      "ĠPart": 6753,
      "Ġcols": 6754,
      "Pass": 6755,
      "tection": 6756,
      "Oper": 6757,
      "Pos": 6758,
      "cords": 6759,
      "integers": 6760,
      "Ġprogram": 6761,
      "components": 6762,
      "56789": 6763,
      "IB": 6764,
      "Ġcm": 6765,
      "Ġmi": 6766,
      "Ġhuggingface": 6767,
      "DecoderLayer": 6768,
      "unded": 6769,
      "DEF": 6770,
      "vectors": 6771,
      "Weights": 6772,
      "Attr": 6773,
      "dc": 6774,
      "Ġidentifier": 6775,
      "Qwen": 6776,
      "document": 6777,
      "recurrence": 6778,
      "mlink": 6779,
      "writeline": 6780,
      "maximum": 6781,
      "Mock": 6782,
      ">[": 6783,
      "Ġbind": 6784,
      "Ġmakes": 6785,
      "argin": 6786,
      "OTO": 6787,
      "flex": 6788,
      "pydantic": 6789,
      "Ġplan": 6790,
      "Ġfut": 6791,
      "rad": 6792,
      "ĠUP": 6793,
      "arger": 6794,
      "gebraic": 6795,
      "JSON": 6796,
      "Simple": 6797,
      "utdown": 6798,
      "tries": 6799,
      "Ġrepresents": 6800,
      "At": 6801,
      "DATA": 6802,
      "generated": 6803,
      "Ġlookup": 6804,
      "Ġscore": 6805,
      "program": 6806,
      "Ġord": 6807,
      "Ġproduce": 6808,
      "Func": 6809,
      "Derivative": 6810,
      "member": 6811,
      "Ġdb": 6812,
      "profile": 6813,
      "ĠAttr": 6814,
      "ĠDummy": 6815,
      "median": 6816,
      "nf": 6817,
      "tanh": 6818,
      "))]": 6819,
      "dataclasses": 6820,
      "iterator": 6821,
      "Char": 6822,
      "rat": 6823,
      "rf": 6824,
      "\\.)?": 6825,
      "Ġreturning": 6826,
      "blocking": 6827,
      "Ġconsist": 6828,
      "Pooling": 6829,
      "Ġxml": 6830,
      "Ġprevent": 6831,
      "DM": 6832,
      "Pa": 6833,
      "each": 6834,
      "prop": 6835,
      "scan": 6836,
      "compiled": 6837,
      "flush": 6838,
      "Ġae": 6839,
      "Ġresulting": 6840,
      "']['": 6841,
      "got": 6842,
      "Ġindexing": 6843,
      "pick": 6844,
      "aged": 6845,
      "additional": 6846,
      "plugin": 6847,
      "ĠTyped": 6848,
      "Ġprovides": 6849,
      "âĶĢâĶĢâĶĢâĶĢ": 6850,
      "ConditionalGeneration": 6851,
      ">',": 6852,
      "Ġderivative": 6853,
      "FLOAT": 6854,
      "LP": 6855,
      "Ġcpp": 6856,
      "verg": 6857,
      "cursor": 6858,
      "perimental": 6859,
      "ev": 6860,
      "Socket": 6861,
      ">=": 6862,
      "atype": 6863,
      "ĠLO": 6864,
      "Ġcompression": 6865,
      "rector": 6866,
      "ĠCop": 6867,
      "../": 6868,
      "ince": 6869,
      "rupt": 6870,
      "rms": 6871,
      "Ġgc": 6872,
      "Ġfig": 6873,
      "Ġstatistic": 6874,
      "Ġconsidered": 6875,
      ")+": 6876,
      "gg": 6877,
      "pm": 6878,
      "univ": 6879,
      "ulation": 6880,
      "ĠBasic": 6881,
      "TENT": 6882,
      "component": 6883,
      "fusion": 6884,
      "ĠSy": 6885,
      "Ġintegr": 6886,
      "pretty": 6887,
      "interp": 6888,
      "ForConditionalGeneration": 6889,
      "Ġassumptions": 6890,
      "Ġcontextlib": 6891,
      "istant": 6892,
      "ĠĠĠĠĠĠĠĠĠĠĠĠĠĠĠĠĠĠĠĠĠĠĠĠĠ": 6893,
      "))*": 6894,
      "Ġyear": 6895,
      "erce": 6896,
      "Ġbasis": 6897,
      "into": 6898,
      "aux": 6899,
      "ea": 6900,
      "utation": 6901,
      "Ġmid": 6902,
      "ĠSer": 6903,
      "ĠUN": 6904,
      "mitian": 6905,
      "UTH": 6906,
      "Has": 6907,
      "lator": 6908,
      "intp": 6909,
      "rant": 6910,
      "denom": 6911,
      "Ġranks": 6912,
      "Ġsubset": 6913,
      "Ġmanually": 6914,
      "ished": 6915,
      "ĠOr": 6916,
      "Start": 6917,
      ".*.": 6918,
      "allowed": 6919,
      "FUNCTIONS": 6920,
      "110": 6921,
      "nsure": 6922,
      "Can": 6923,
      "ĠAS": 6924,
      "Ġanswer": 6925,
      "Literal": 6926,
      "peft": 6927,
      "lookup": 6928,
      "ceil": 6929,
      "Ġstrategy": 6930,
      "compress": 6931,
      "hostname": 6932,
      "Ġcolors": 6933,
      "2017": 6934,
      "crease": 6935,
      "threads": 6936,
      "Ġrather": 6937,
      "Writer": 6938,
      "ERROR": 6939,
      "LINE": 6940,
      "marker": 6941,
      "decor": 6942,
      "imodal": 6943,
      "6666": 6944,
      "Ġ])": 6945,
      "itable": 6946,
      "radient": 6947,
      "periods": 6948,
      "eos": 6949,
      "roy": 6950,
      "pct": 6951,
      "Ġ(),": 6952,
      "application": 6953,
      "Typed": 6954,
      "ĠAttention": 6955,
      "Ġedit": 6956,
      "127": 6957,
      "\"\"\"\\": 6958,
      "acity": 6959,
      "abstractmethod": 6960,
      "statement": 6961,
      "InfoExtractor": 6962,
      "Ġfo": 6963,
      "Validator": 6964,
      "Ġdescriptor": 6965,
      ":],": 6966,
      "aves": 6967,
      "2020": 6968,
      "cursion": 6969,
      "iliary": 6970,
      "Ġbug": 6971,
      "Ġformul": 6972,
      "ĠCopied": 6973,
      "ReLU": 6974,
      "ĠDomain": 6975,
      "peak": 6976,
      "otonic": 6977,
      "found": 6978,
      "definedSerializer": 6979,
      "CUDA": 6980,
      "wikipedia": 6981,
      "aussian": 6982,
      "ĠUnicode": 6983,
      "Status": 6984,
      "dian": 6985,
      "Ġperformance": 6986,
      "xB": 6987,
      "Ġfd": 6988,
      "chine": 6989,
      "segmentation": 6990,
      "Ġqueries": 6991,
      "napshot": 6992,
      "ural": 6993,
      "lish": 6994,
      "central": 6995,
      "[{": 6996,
      "catch": 6997,
      "ired": 6998,
      "ĠOP": 6999,
      "traverse": 7000,
      "See": 7001,
      "capture": 7002,
      "Ġtim": 7003,
      "ĠNon": 7004,
      "Ġenc": 7005,
      "vid": 7006,
      "bedev": 7007,
      "modified": 7008,
      "AGE": 7009,
      "rete": 7010,
      "paque": 7011,
      "ĠsetUp": 7012,
      "packed": 7013,
      "ĠTransferFunction": 7014,
      "ĠHowever": 7015,
      "AF": 7016,
      "initions": 7017,
      "Ġndimage": 7018,
      "percent": 7019,
      "ITY": 7020,
      "Ġcontainer": 7021,
      "Ġinitialized": 7022,
      "dns": 7023,
      "Ġke": 7024,
      "Ġfit": 7025,
      "Ġalloc": 7026,
      "ViT": 7027,
      "Ġregistered": 7028,
      "fqn": 7029,
      "equals": 7030,
      "Ġfactors": 7031,
      "bd": 7032,
      "Ġ\"\")": 7033,
      "Ġwhose": 7034,
      "Ġtracing": 7035,
      "batched": 7036,
      "scaled": 7037,
      "chain": 7038,
      "sliding": 7039,
      "FIX": 7040,
      "levant": 7041,
      "Ġcausal": 7042,
      "ĠĠĠĠĠĠĠĠĠĠĠĠĠĠĠĠĠĠĠ": 7043,
      "ĠExtractor": 7044,
      "ĠVi": 7045,
      "Engine": 7046,
      "question": 7047,
      "Ġgeneric": 7048,
      "Parse": 7049,
      "BASE": 7050,
      "zA": 7051,
      "Ġresolution": 7052,
      "ĠSome": 7053,
      "Om": 7054,
      "ãĤ": 7055,
      "pie": 7056,
      "iteria": 7057,
      "Ġwrong": 7058,
      "MT": 7059,
      "Ġsigma": 7060,
      "Bool": 7061,
      "LY": 7062,
      "Ġrecomm": 7063,
      "('\\": 7064,
      "Ġseparate": 7065,
      "ongest": 7066,
      "aming": 7067,
      "qualname": 7068,
      ")\")": 7069,
      "COD": 7070,
      "Sum": 7071,
      "]`):": 7072,
      "Ġcum": 7073,
      "(\"%": 7074,
      "lebedev": 7075,
      "Ġmapper": 7076,
      "Ġfused": 7077,
      "factorial": 7078,
      "Ġrpc": 7079,
      "Ġtemporal": 7080,
      "dle": 7081,
      "Ġslow": 7082,
      "Ġdow": 7083,
      "Mat": 7084,
      "Ġes": 7085,
      "Ġ500": 7086,
      "Ġrand": 7087,
      "Shape": 7088,
      "Ġ384": 7089,
      "explicit": 7090,
      "afet": 7091,
      "Ad": 7092,
      "seen": 7093,
      "assign": 7094,
      "TensorProduct": 7095,
      "csr": 7096,
      "Iteration": 7097,
      "ĠBytes": 7098,
      ".\\": 7099,
      "Ġentire": 7100,
      "Ġprojection": 7101,
      "501": 7102,
      "()._": 7103,
      "Ġintegrate": 7104,
      "ĠGenerator": 7105,
      "(%": 7106,
      "roken": 7107,
      "Ġ`_": 7108,
      "ĠEX": 7109,
      "overflow": 7110,
      "Ġagg": 7111,
      "ĠExtractorError": 7112,
      "ĠTorch": 7113,
      "hase": 7114,
      "Ġserialized": 7115,
      "rest": 7116,
      "Act": 7117,
      "ĠNew": 7118,
      "Ġbig": 7119,
      "Ġbasic": 7120,
      "lices": 7121,
      "Ġmedia": 7122,
      "sequences": 7123,
      "VERSION": 7124,
      "Ġescape": 7125,
      "Ġpur": 7126,
      "Ġstem": 7127,
      "Ġleading": 7128,
      "handlers": 7129,
      "ole": 7130,
      "onential": 7131,
      "ĠGPU": 7132,
      "Ġcalculate": 7133,
      "Clo": 7134,
      "mooth": 7135,
      "Ġpygments": 7136,
      ")}\")": 7137,
      "Ġ```\"\"\"": 7138,
      "directional": 7139,
      "Ġpk": 7140,
      "Struct": 7141,
      "Ġmerged": 7142,
      "IST": 7143,
      "keywords": 7144,
      "Ġoverlap": 7145,
      "BY": 7146,
      "Ġhard": 7147,
      "Ġkv": 7148,
      "leted": 7149,
      "endor": 7150,
      "ĠPredefinedSerializer": 7151,
      "xFF": 7152,
      "Ġspl": 7153,
      "ilation": 7154,
      "Ġhol": 7155,
      "hould": 7156,
      "Parameters": 7157,
      "Ġsomething": 7158,
      "Ġplaceholder": 7159,
      "functools": 7160,
      "qk": 7161,
      "gether": 7162,
      "ĊĠĠĠĠĠĠĠĠĠĠĠĠĠĠĠĠĠĠĠĠĠĠĠĠĠĠĠĠĠĠĠĠĠĠĠĠĠĠĠ": 7163,
      "router": 7164,
      "getvalue": 7165,
      "ICE": 7166,
      "'<": 7167,
      "sage": 7168,
      "zv": 7169,
      "ĠIP": 7170,
      "ĠDeep": 7171,
      "GraphModule": 7172,
      "PROTO": 7173,
      "FIE": 7174,
      "mn": 7175,
      "Ġinstanti": 7176,
      "ĠStyle": 7177,
      "ĠDim": 7178,
      "Ġ768": 7179,
      "gon": 7180,
      "peg": 7181,
      "Ġdatabase": 7182,
      "Cross": 7183,
      "Ġ(_": 7184,
      "imize": 7185,
      "Ġunless": 7186,
      "Ġsubclasses": 7187,
      "Ġpooled": 7188,
      "curve": 7189,
      "Ġquad": 7190,
      "TextConfig": 7191,
      "tw": 7192,
      "ued": 7193,
      "Ġinitialize": 7194,
      "Ġkeepdims": 7195,
      "()``": 7196,
      "resnet": 7197,
      "Ġmodular": 7198,
      "Ġvisual": 7199,
      "pan": 7200,
      "âĢ": 7201,
      "OPT": 7202,
      "ĠSymPy": 7203,
      "sympify": 7204,
      "Iterable": 7205,
      "Tr": 7206,
      "ĠIDs": 7207,
      "Ġcapture": 7208,
      "'d": 7209,
      "ned": 7210,
      "Ġpg": 7211,
      "Ġ#:": 7212,
      "Ġ{{": 7213,
      "Ġ36": 7214,
      "Ġrules": 7215,
      "corners": 7216,
      "]]]": 7217,
      "docstr": 7218,
      "MAT": 7219,
      "come": 7220,
      "Ġlr": 7221,
      "ĠRIGHT": 7222,
      "'].": 7223,
      "Ġub": 7224,
      "Ġsolver": 7225,
      "Ġparallel": 7226,
      "((-": 7227,
      "IndexError": 7228,
      "cannot": 7229,
      "ybrid": 7230,
      "Ġeas": 7231,
      "ICAL": 7232,
      "expanded": 7233,
      "ĠPreTrainedConfig": 7234,
      "Ġaverage": 7235,
      "ANT": 7236,
      "Ġloading": 7237,
      "Ġmaps": 7238,
      "ĠState": 7239,
      "fm": 7240,
      "tan": 7241,
      "Ġturn": 7242,
      "Ġcent": 7243,
      "Ġclause": 7244,
      "Ġph": 7245,
      "expert": 7246,
      "Ġaccount": 7247,
      "Ġchildren": 7248,
      "mas": 7249,
      "Ġoutside": 7250,
      "Ġgate": 7251,
      "ayload": 7252,
      "Ġkernels": 7253,
      "assertIsNone": 7254,
      "Ġboundary": 7255,
      "arant": 7256,
      "ĠFSDP": 7257,
      "uplicates": 7258,
      "SL": 7259,
      "torchvision": 7260,
      "Ġbuffers": 7261,
      "}))": 7262,
      "Ġmul": 7263,
      "licate": 7264,
      "Ġ68": 7265,
      "STD": 7266,
      "Mark": 7267,
      "Integral": 7268,
      "Ġoptimization": 7269,
      "Ġcorresponds": 7270,
      "Ġhtml": 7271,
      "ĠMap": 7272,
      "preprocess": 7273,
      "Ġtranspose": 7274,
      "qr": 7275,
      "tok": 7276,
      "hour": 7277,
      "ranks": 7278,
      "=\\": 7279,
      "Ġchunks": 7280,
      "seg": 7281,
      "__\":": 7282,
      "week": 7283,
      "ART": 7284,
      "dark": 7285,
      "fut": 7286,
      "Ġlineno": 7287,
      "Ġadjust": 7288,
      "BE": 7289,
      "Segment": 7290,
      "Ġvideos": 7291,
      "ĠCustom": 7292,
      "]+)'": 7293,
      "mgr": 7294,
      "Ġmass": 7295,
      "ĠTraceback": 7296,
      "eX": 7297,
      "console": 7298,
      "Keyword": 7299,
      "stroke": 7300,
      "Ġ8192": 7301,
      "IGIT": 7302,
      "Ġ(*": 7303,
      "executable": 7304,
      "Timeout": 7305,
      "didates": 7306,
      "validation": 7307,
      "Encoding": 7308,
      "divis": 7309,
      "chunks": 7310,
      "ĠPO": 7311,
      "ĠLe": 7312,
      "idxs": 7313,
      "arily": 7314,
      "Ġadding": 7315,
      "ĠRoPE": 7316,
      "'\",": 7317,
      "Match": 7318,
      "mup": 7319,
      "excel": 7320,
      "Ġresolve": 7321,
      "Ġpreserve": 7322,
      "uffle": 7323,
      "PATH": 7324,
      "NotFoundError": 7325,
      "\"\"\",": 7326,
      "Ġfunctional": 7327,
      "Ġproperly": 7328,
      "unity": 7329,
      "entication": 7330,
      "ynchron": 7331,
      "ulary": 7332,
      "ĠAc": 7333,
      "lb": 7334,
      "Ġmember": 7335,
      "Ġowner": 7336,
      "benchmark": 7337,
      "specs": 7338,
      "green": 7339,
      "ravel": 7340,
      "Ġsympify": 7341,
      "Ġautograd": 7342,
      "Ġsymmetric": 7343,
      "Ġretrie": 7344,
      "gi": 7345,
      "Ġmade": 7346,
      "PUT": 7347,
      "Scheduler": 7348,
      "Ġemail": 7349,
      "Ġsatis": 7350,
      "Pl": 7351,
      "card": 7352,
      "fol": 7353,
      "tail": 7354,
      "fully": 7355,
      "dep": 7356,
      "arith": 7357,
      "mpmath": 7358,
      "ĠFirst": 7359,
      "when": 7360,
      "TORCH": 7361,
      "site": 7362,
      "youtube": 7363,
      "raft": 7364,
      "Ġlarger": 7365,
      "xpu": 7366,
      "Ġlegacy": 7367,
      "leaf": 7368,
      "Self": 7369,
      "lst": 7370,
      "implicit": 7371,
      "Omni": 7372,
      ":'": 7373,
      "curity": 7374,
      "Unless": 7375,
      "Ġreplaced": 7376,
      "+)": 7377,
      "Pow": 7378,
      "gcd": 7379,
      "ura": 7380,
      "dilation": 7381,
      "BACK": 7382,
      "vl": 7383,
      "outine": 7384,
      "markup": 7385,
      "Pattern": 7386,
      "DED": 7387,
      "Ġissubclass": 7388,
      "Ġconj": 7389,
      "Ġchoice": 7390,
      "Ġoccur": 7391,
      "fuse": 7392,
      "gelu": 7393,
      "igraph": 7394,
      "ĠTeam": 7395,
      "Ġ80": 7396,
      "Complex": 7397,
      "SED": 7398,
      "lam": 7399,
      "ĠBatchFeature": 7400,
      "ĠRFC": 7401,
      "dedent": 7402,
      "Ġspan": 7403,
      "QLA": 7404,
      "Ġlicense": 7405,
      "Ġ\"`": 7406,
      "Ġshe": 7407,
      "ĠCal": 7408,
      "strided": 7409,
      "sampling": 7410,
      "ĠEd": 7411,
      "ICT": 7412,
      "Api": 7413,
      "Ġ'(": 7414,
      "Ġhandled": 7415,
      "Ġtolerance": 7416,
      "cov": 7417,
      "addCleanup": 7418,
      "normalized": 7419,
      "gy": 7420,
      "105": 7421,
      "success": 7422,
      "different": 7423,
      "cub": 7424,
      "Ġinfer": 7425,
      "Ġwidget": 7426,
      "Ġchecking": 7427,
      "Ġwritten": 7428,
      ":%": 7429,
      "Ġed": 7430,
      "remain": 7431,
      "Ġreplacement": 7432,
      "ouble": 7433,
      "UPP": 7434,
      "LazyLoad": 7435,
      "keyword": 7436,
      "Ġweakref": 7437,
      "xC": 7438,
      "Ġints": 7439,
      "Ġtransformer": 7440,
      "qconfig": 7441,
      "ı\",": 7442,
      "unused": 7443,
      "Ġ\"\"\"\\": 7444,
      "pay": 7445,
      "tilde": 7446,
      "BUG": 7447,
      "Choice": 7448,
      "On": 7449,
      "Ġear": 7450,
      "geometric": 7451,
      "Font": 7452,
      "Ġmatched": 7453,
      "Ġexpert": 7454,
      "encoded": 7455,
      "Ġindependent": 7456,
      "Transformer": 7457,
      "`].": 7458,
      "spaces": 7459,
      "Ġfew": 7460,
      "until": 7461,
      "kips": 7462,
      "operation": 7463,
      "Speech": 7464,
      "pvalue": 7465,
      "ail": 7466,
      "ĠONN": 7467,
      "Thread": 7468,
      "ĠONNX": 7469,
      "Non": 7470,
      "Rep": 7471,
      "Ġanal": 7472,
      "partite": 7473,
      "Ġtransport": 7474,
      "tick": 7475,
      "clean": 7476,
      "eu": 7477,
      "widget": 7478,
      "ï¸": 7479,
      "Ġfinite": 7480,
      "rout": 7481,
      "Ġmlp": 7482,
      "iodic": 7483,
      "izations": 7484,
      "(\"-": 7485,
      "ĠLEFT": 7486,
      "Ġjoint": 7487,
      "LazyLoadExtractor": 7488,
      "Ġneg": 7489,
      "Ġphi": 7490,
      "Ġsubstit": 7491,
      "ENCE": 7492,
      "bsz": 7493,
      "NAMES": 7494,
      "Handle": 7495,
      "Ass": 7496,
      "itect": 7497,
      "008": 7498,
      "cura": 7499,
      "many": 7500,
      "filterwarnings": 7501,
      "Ġskipna": 7502,
      "QLAl": 7503,
      "Sparse": 7504,
      "dy": 7505,
      "prog": 7506,
      "REEK": 7507,
      "leading": 7508,
      "Ġgive": 7509,
      "activ": 7510,
      "Nodes": 7511,
      "QLAlchemy": 7512,
      "dirname": 7513,
      "159": 7514,
      "509": 7515,
      "king": 7516,
      "leave": 7517,
      "ĠNe": 7518,
      "Ġgives": 7519,
      "Ġinitializer": 7520,
      "Embeddings": 7521,
      "Ġpeft": 7522,
      "Ġfft": 7523,
      "conversion": 7524,
      "getter": 7525,
      "Ġlhs": 7526,
      "ends": 7527,
      "dof": 7528,
      "Ġrouter": 7529,
      "Ġhandles": 7530,
      "}(": 7531,
      "adj": 7532,
      "Ġiterations": 7533,
      "deepcopy": 7534,
      "Ġhappen": 7535,
      "]\\": 7536,
      "speech": 7537,
      "120": 7538,
      "DeprecationWarning": 7539,
      "ached": 7540,
      "Ġpredicted": 7541,
      "algorithm": 7542,
      "ĠMod": 7543,
      "Ġbackground": 7544,
      ":-": 7545,
      "equ": 7546,
      "contextmanager": 7547,
      "quantile": 7548,
      "ĠResponse": 7549,
      "KEN": 7550,
      "Task": 7551,
      "Entry": 7552,
      "rules": 7553,
      "rref": 7554,
      "memo": 7555,
      "Ġbins": 7556,
      "ĠMark": 7557,
      "Ġrelated": 7558,
      "bot": 7559,
      "entropy": 7560,
      "Ġ[(\"": 7561,
      "summary": 7562,
      "skipUnless": 7563,
      "whitespace": 7564,
      "ĠâĶĤ": 7565,
      "ogram": 7566,
      "ĠPass": 7567,
      "Unicode": 7568,
      "xfail": 7569,
      "Ġindicates": 7570,
      "sens": 7571,
      "collection": 7572,
      "without": 7573,
      "MODULE": 7574,
      "ĠSampleInput": 7575,
      "Negative": 7576,
      "Ġgf": 7577,
      "ssue": 7578,
      "Ġlazy": 7579,
      "Builder": 7580,
      "hesis": 7581,
      "rectories": 7582,
      "/(?:": 7583,
      "Unit": 7584,
      "Ġrotation": 7585,
      "EE": 7586,
      "Properties": 7587,
      "Control": 7588,
      "Ġ'--": 7589,
      "digits": 7590,
      "grads": 7591,
      "evalf": 7592,
      "Ġguarant": 7593,
      "cmp": 7594,
      "Ġrfc": 7595,
      "mitive": 7596,
      "detach": 7597,
      "FOR": 7598,
      "guards": 7599,
      "difference": 7600,
      "Ġflattened": 7601,
      "500": 7602,
      "nections": 7603,
      "share": 7604,
      "spa": 7605,
      "vendor": 7606,
      "Instruction": 7607,
      "parsed": 7608,
      "tables": 7609,
      "qdm": 7610,
      "Ġparsing": 7611,
      "ĠĠĠĠĠĠĠĠĠĠĠĠĠĠĠĠĠ": 7612,
      "Page": 7613,
      "redirect": 7614,
      "byshe": 7615,
      ")**(": 7616,
      "Channel": 7617,
      "Ġnumerical": 7618,
      ")``.": 7619,
      "Adapt": 7620,
      "branch": 7621,
      "hdf": 7622,
      "nat": 7623,
      "pat": 7624,
      "chan": 7625,
      "Ġdx": 7626,
      "UND": 7627,
      "Ġmag": 7628,
      "'^": 7629,
      "Ġsen": 7630,
      "ĠBut": 7631,
      "Ġpreced": 7632,
      "Ġoverflow": 7633,
      "Ġordering": 7634,
      "NetworkXError": 7635,
      "Ġ16384": 7636,
      "Ġpot": 7637,
      "Ġseealso": 7638,
      "Filter": 7639,
      "gh": 7640,
      "\"]]": 7641,
      "accept": 7642,
      "mma": 7643,
      "Formatter": 7644,
      "Ġmonth": 7645,
      "mass": 7646,
      "Ġpp": 7647,
      "gnitude": 7648,
      "Ġregion": 7649,
      "Ġchain": 7650,
      "Ġpersistent": 7651,
      "Ġmm": 7652,
      "Ġcursor": 7653,
      "Checkpoint": 7654,
      "ĠDTensor": 7655,
      "progress": 7656,
      "ĠForm": 7657,
      "processed": 7658,
      "aching": 7659,
      "remo": 7660,
      "getLogger": 7661,
      "problem": 7662,
      "Ġsettings": 7663,
      "Ġimpro": 7664,
      "ĠKeywordArg": 7665,
      "Pri": 7666,
      "quent": 7667,
      "transforms": 7668,
      "initialized": 7669,
      "greater": 7670,
      "112": 7671,
      "uch": 7672,
      "examples": 7673,
      "aml": 7674,
      "topk": 7675,
      "Ġtaken": 7676,
      "coeffs": 7677,
      "udo": 7678,
      "ĊĊĠĠĠĠĠĠĠĠĠĠĠĠĠ": 7679,
      "expressions": 7680,
      "Ġnative": 7681,
      "Ġgets": 7682,
      "CTION": 7683,
      "Ġ===========": 7684,
      "104": 7685,
      "ĠDevice": 7686,
      "vergence": 7687,
      "UC": 7688,
      "ĠGlm": 7689,
      "[^>": 7690,
      "Ġcreating": 7691,
      "Ġconditions": 7692,
      "otune": 7693,
      "ĠBLOCK": 7694,
      "indexes": 7695,
      "Ġ\"ðŁĩ": 7696,
      "builtins": 7697,
      "Speci": 7698,
      "batches": 7699,
      "logs": 7700,
      "openai": 7701,
      "utoff": 7702,
      "Resampling": 7703,
      "Ġgradients": 7704,
      "Ġ'$": 7705,
      "ĠNaT": 7706,
      "],[": 7707,
      "ĠLabel": 7708,
      "Ġpathlib": 7709,
      "inds": 7710,
      "ales": 7711,
      "utative": 7712,
      "ĠSkip": 7713,
      "0101": 7714,
      "Ġjit": 7715,
      "payload": 7716,
      "Bar": 7717,
      "Ġgather": 7718,
      "xs": 7719,
      "reen": 7720,
      "Ġfine": 7721,
      "Ġhigher": 7722,
      "autocast": 7723,
      "STRING": 7724,
      "curacy": 7725,
      "Row": 7726,
      "ĠShould": 7727,
      "mpleted": 7728,
      "TC": 7729,
      "oms": 7730,
      "ration": 7731,
      "erc": 7732,
      "Ġmix": 7733,
      "intersection": 7734,
      "Ġobtained": 7735,
      "ĠNamed": 7736,
      "atan": 7737,
      "ĠRemove": 7738,
      "mapped": 7739,
      "Num": 7740,
      "Ġqueue": 7741,
      "ĠRO": 7742,
      "pag": 7743,
      "aaaa": 7744,
      "inline": 7745,
      "allen": 7746,
      "Ġdefaultdict": 7747,
      "Ġ------": 7748,
      "Ġreduced": 7749,
      "BatchNorm": 7750,
      "imal": 7751,
      "bessel": 7752,
      "Ġtv": 7753,
      "isom": 7754,
      "=============": 7755,
      "deg": 7756,
      "mediates": 7757,
      "RuntimeError": 7758,
      "Ġcfg": 7759,
      "ĠĠĠĠĠĠĠĠĠĠĠĠĠĠĠĠĠĠ": 7760,
      "rr": 7761,
      "\"][\"": 7762,
      "placements": 7763,
      ")._": 7764,
      "CM": 7765,
      "vc": 7766,
      "unsupported": 7767,
      "Ġhint": 7768,
      "Decode": 7769,
      "Ġsyntax": 7770,
      "Ġfrequencies": 7771,
      "BB": 7772,
      "Render": 7773,
      "Ġ\"\"\")": 7774,
      "ĠIMAGENET": 7775,
      "epsilon": 7776,
      "ĠCONT": 7777,
      "gc": 7778,
      "Ġchoices": 7779,
      "Ġpivot": 7780,
      "Ġrecursive": 7781,
      "vp": 7782,
      "ĠUsed": 7783,
      "ĠHead": 7784,
      "Ġ600": 7785,
      "ĠVector": 7786,
      "Parallel": 7787,
      "blue": 7788,
      "ĠOpenAPI": 7789,
      "pull": 7790,
      "}_{": 7791,
      "ros": 7792,
      "urther": 7793,
      "ĠDIGIT": 7794,
      "Ġresolved": 7795,
      "Ġswap": 7796,
      "epoch": 7797,
      "enu": 7798,
      "uristic": 7799,
      "Dimension": 7800,
      "LEX": 7801,
      "Write": 7802,
      "Ġcuda": 7803,
      ">[^/": 7804,
      "Ġbottom": 7805,
      ":`\\": 7806,
      "]+',": 7807,
      "mutations": 7808,
      "LEN": 7809,
      "yy": 7810,
      "reindex": 7811,
      "ĠNULL": 7812,
      "004": 7813,
      "ĠEnsure": 7814,
      "Ġ``\"": 7815,
      "Ġobserved": 7816,
      "oriz": 7817,
      "ĠAttributes": 7818,
      "!!": 7819,
      "Ġ'*.": 7820,
      "cosh": 7821,
      "Ġduration": 7822,
      "Ġsubtitles": 7823,
      "Out": 7824,
      "rename": 7825,
      "sually": 7826,
      "Ġreader": 7827,
      "MB": 7828,
      "ĠGenerate": 7829,
      "SHA": 7830,
      "ĠAccess": 7831,
      "Ġstmt": 7832,
      "argv": 7833,
      "Ġcalculated": 7834,
      "invert": 7835,
      "Ġsmaller": 7836,
      "Ġkwds": 7837,
      "ssibly": 7838,
      "PIL": 7839,
      "bottom": 7840,
      "Ġnet": 7841,
      "Ġreversed": 7842,
      "ENCOD": 7843,
      "Ġmove": 7844,
      "ĠBaseModelOutputWithPooling": 7845,
      "must": 7846,
      "fev": 7847,
      "builtin": 7848,
      "ja": 7849,
      "veral": 7850,
      "bases": 7851,
      "average": 7852,
      "ĠSince": 7853,
      "ternally": 7854,
      "ARD": 7855,
      "inspect": 7856,
      "Ġ[`~": 7857,
      "ĠDEFAULT": 7858,
      "ARY": 7859,
      "Ġheads": 7860,
      "Ġimpl": 7861,
      "Ġdti": 7862,
      "ĠCH": 7863,
      "ertube": 7864,
      "=['": 7865,
      "ye": 7866,
      "pyxl": 7867,
      "structions": 7868,
      "dr": 7869,
      "Ġ'\"": 7870,
      "pared": 7871,
      "ks": 7872,
      "Ġder": 7873,
      "Ġtogether": 7874,
      "ĠRequired": 7875,
      "Ġaccumul": 7876,
      "workers": 7877,
      "Ġ\"ðŁĳ": 7878,
      "ĠPe": 7879,
      "pread": 7880,
      "ĠWr": 7881,
      "\"][": 7882,
      "stributed": 7883,
      "Empty": 7884,
      "metic": 7885,
      "Printer": 7886,
      "Basic": 7887,
      "Ġtb": 7888,
      "__(**": 7889,
      "answer": 7890,
      "VAR": 7891,
      "png": 7892,
      "lava": 7893,
      "Ġpercent": 7894,
      "Lock": 7895,
      "ĠApply": 7896,
      "Ġcpu": 7897,
      "Ġindi": 7898,
      "subset": 7899,
      "factors": 7900,
      "Ġinvok": 7901,
      "*\\": 7902,
      "(\"<": 7903,
      "planation": 7904,
      "]``": 7905,
      "divide": 7906,
      "major": 7907,
      "106": 7908,
      "Fast": 7909,
      "ridden": 7910,
      "ĠSQLAlchemy": 7911,
      "Ġrational": 7912,
      "FD": 7913,
      "ĠStr": 7914,
      "\")],": 7915,
      "ĊĊĊĠĠĠĠĠĠĠ": 7916,
      "locale": 7917,
      "ĠStop": 7918,
      "ĠExplanation": 7919,
      "Ġhints": 7920,
      "Ġruns": 7921,
      "candidate": 7922,
      "Categorical": 7923,
      "erelease": 7924,
      "Completion": 7925,
      "Translator": 7926,
      "rolling": 7927,
      "Ġfilenames": 7928,
      "Ġfusion": 7929,
      "005": 7930,
      "(((": 7931,
      "AttributeError": 7932,
      "Ġprimary": 7933,
      "NUM": 7934,
      "Ġbs": 7935,
      "urllib": 7936,
      "uses": 7937,
      "container": 7938,
      "ĠAttrMap": 7939,
      "Import": 7940,
      "xD": 7941,
      "ansion": 7942,
      "Ġclone": 7943,
      "ategies": 7944,
      "PS": 7945,
      "master": 7946,
      "Ġgoogle": 7947,
      "Split": 7948,
      ")})": 7949,
      "II": 7950,
      "seudo": 7951,
      "\")]": 7952,
      "Unknown": 7953,
      "Ġfollows": 7954,
      "ĠLog": 7955,
      "wb": 7956,
      "Ġrevision": 7957,
      "ommon": 7958,
      "Ġfaster": 7959,
      "Autograd": 7960,
      "ĠMust": 7961,
      "Datetime": 7962,
      "nl": 7963,
      "Ġsingular": 7964,
      "days": 7965,
      "109": 7966,
      "Ġmarker": 7967,
      "Operation": 7968,
      "stable": 7969,
      "Ġtargets": 7970,
      "istral": 7971,
      "Ġnotebook": 7972,
      "Ġincludes": 7973,
      ":`~.": 7974,
      "Domain": 7975,
      "<=": 7976,
      "mc": 7977,
      "2015": 7978,
      "VALUE": 7979,
      "TestCommon": 7980,
      "TOKEN": 7981,
      "[::-": 7982,
      "iry": 7983,
      "Ġqkv": 7984,
      "cating": 7985,
      "Ans": 7986,
      "quat": 7987,
      "atting": 7988,
      "filters": 7989,
      "Ġprime": 7990,
      "EXP": 7991,
      "bracket": 7992,
      "CLO": 7993,
      "IAL": 7994,
      "PP": 7995,
      "las": 7996,
      "mount": 7997,
      "]`.": 7998,
      "MMMMMMMM": 7999,
      "border": 8000,
      "email": 8001,
      "Ġfw": 8002,
      "Property": 8003,
      "Ġtempfile": 8004,
      "Ġmodeling": 8005,
      "Ġregistry": 8006,
      "warps": 8007,
      "Ġvocabulary": 8008,
      "Ġmuch": 8009,
      "history": 8010,
      "SyntaxError": 8011,
      "([^": 8012,
      ".'": 8013,
      "bold": 8014,
      "trig": 8015,
      "Ġgood": 8016,
      "ares": 8017,
      "Ġqui": 8018,
      "Transpose": 8019,
      "Ġtile": 8020,
      "Ġdigits": 8021,
      "ĠHas": 8022,
      "failure": 8023,
      "boundary": 8024,
      "algorithms": 8025,
      "Ġable": 8026,
      "ĠFind": 8027,
      "ette": 8028,
      "Ġprovider": 8029,
      "ĠGREEK": 8030,
      "Ġprediction": 8031,
      "compressed": 8032,
      "car": 8033,
      "fname": 8034,
      "Ġefficient": 8035,
      "ĠSO": 8036,
      "Select": 8037,
      "requests": 8038,
      "ĠMethod": 8039,
      "Rel": 8040,
      "sequent": 8041,
      "Ġnothing": 8042,
      "StringIO": 8043,
      "randint": 8044,
      "=============================================================================": 8045,
      "NotImplementedError": 8046,
      "SM": 8047,
      "eager": 8048,
      "orient": 8049,
      "Ġenough": 8050,
      "TENTION": 8051,
      "'ll": 8052,
      "]|": 8053,
      "decl": 8054,
      "ĠTEST": 8055,
      "shortest": 8056,
      "Ġtheta": 8057,
      "TLS": 8058,
      "provider": 8059,
      "Ġtools": 8060,
      "arx": 8061,
      "Ġcp": 8062,
      "perm": 8063,
      "Ġwhole": 8064,
      "ĠExp": 8065,
      "adapters": 8066,
      "Pipe": 8067,
      "ox": 8068,
      "Ġcf": 8069,
      "Mod": 8070,
      "VICE": 8071,
      "Ġ35": 8072,
      "Ġpolynomials": 8073,
      "Imp": 8074,
      "Ġlimits": 8075,
      "atron": 8076,
      "maxsize": 8077,
      "zeta": 8078,
      "cription": 8079,
      "PACE": 8080,
      "ĠRel": 8081,
      "Ġunknown": 8082,
      "ĊĊĠĠĠĠĠ": 8083,
      "Ġbenchmark": 8084,
      "CTOR": 8085,
      "Ġfolder": 8086,
      "KeyError": 8087,
      "Ġcounts": 8088,
      "Ġanything": 8089,
      "Ġsharded": 8090,
      "ĠMeta": 8091,
      "ONT": 8092,
      "nearest": 8093,
      "ysis": 8094,
      "AE": 8095,
      "Ġdd": 8096,
      "ðŁĩ": 8097,
      "deltas": 8098,
      "Search": 8099,
      "Ġ224": 8100,
      "(\"/": 8101,
      "Ġ34": 8102,
      "Ġprinter": 8103,
      "stdin": 8104,
      "Ġ---": 8105,
      "ĠâĢ": 8106,
      "ï¸ı\",": 8107,
      "Po": 8108,
      "Url": 8109,
      "ĠTO": 8110,
      "calc": 8111,
      "ĠInst": 8112,
      "LOG": 8113,
      "Ġformatted": 8114,
      "SymInt": 8115,
      "least": 8116,
      "____": 8117,
      "ĠSig": 8118,
      "###": 8119,
      "Skipped": 8120,
      "Ġfully": 8121,
      "Ġce": 8122,
      "Ġvalidator": 8123,
      "PreTrainedConfig": 8124,
      "arxiv": 8125,
      "Ġwon": 8126,
      "Ġemb": 8127,
      "Ġ`{": 8128,
      "Ġpipeline": 8129,
      "LazyModule": 8130,
      ".{": 8131,
      "Open": 8132,
      "uz": 8133,
      "stion": 8134,
      "Ġpatterns": 8135,
      "dify": 8136,
      "Ġtextwrap": 8137,
      "cud": 8138,
      "Ġfsdp": 8139,
      "jp": 8140,
      "Ġcer": 8141,
      "Ġunsqueeze": 8142,
      "existing": 8143,
      "combinator": 8144,
      "endpoint": 8145,
      "DATE": 8146,
      "Ġthings": 8147,
      "Ġgens": 8148,
      "Ġlamb": 8149,
      "Ġcommit": 8150,
      "identifier": 8151,
      "ĠAt": 8152,
      "formatter": 8153,
      "latin": 8154,
      "ĠZero": 8155,
      "sqlite": 8156,
      "ĠHTML": 8157,
      "submodule": 8158,
      "ĠQuery": 8159,
      "ker": 8160,
      "124": 8161,
      "Ġrounding": 8162,
      "einsum": 8163,
      "WR": 8164,
      "Ġsalt": 8165,
      "ĠTH": 8166,
      "Ġindicating": 8167,
      "Ġrelevant": 8168,
      "Ġthrow": 8169,
      "Ġ('*.": 8170,
      "aring": 8171,
      "ImageResampling": 8172,
      "ĠGeneration": 8173,
      "Ġtransformation": 8174,
      "MultiIndex": 8175,
      ":{": 8176,
      "tep": 8177,
      "libs": 8178,
      "Ġdescribed": 8179,
      "finfo": 8180,
      "007": 8181,
      "Ġcancel": 8182,
      "weighted": 8183,
      "ĠTransformer": 8184,
      "ilinear": 8185,
      "ENCODING": 8186,
      "both": 8187,
      "Ġdec": 8188,
      "2018": 8189,
      "canonical": 8190,
      "ROM": 8191,
      ".])": 8192,
      "schedule": 8193,
      "ATTENTION": 8194,
      "Ġmatmul": 8195,
      "Ġpacked": 8196,
      "ratic": 8197,
      "DIR": 8198,
      "]_": 8199,
      "chat": 8200,
      "Ġprior": 8201,
      "Ġmetric": 8202,
      "sat": 8203,
      "inations": 8204,
      "Ġfall": 8205,
      "Ġcurve": 8206,
      "LOW": 8207,
      "relation": 8208,
      "Ġaffect": 8209,
      "ĠĠĠĠĠĠĠĠĠĠĠĠĠĠĠĠĠĠĠĠĠĠĠ": 8210,
      "Ġworkers": 8211,
      "Ġcreation": 8212,
      "Ġvariance": 8213,
      "-%": 8214,
      "Dense": 8215,
      "ital": 8216,
      "kew": 8217,
      "ĠAxis": 8218,
      "Ġgb": 8219,
      "Ġsources": 8220,
      "Ġperformed": 8221,
      "misc": 8222,
      "Ġvarious": 8223,
      "derivative": 8224,
      "Beta": 8225,
      "az": 8226,
      "()).": 8227,
      "props": 8228,
      "ĠContent": 8229,
      "cpython": 8230,
      "pin": 8231,
      "Ġ99": 8232,
      "Ġsim": 8233,
      "mbiguous": 8234,
      "ĠInfo": 8235,
      "ĊĠĠĠĠĠĠĠĠĠĠĠĠĠĠĠĠĠĠĠĠĠĠĠĠĠĠĠĠĠĠĠĠĠĠĠĠĠ": 8236,
      "Ġdisabled": 8237,
      "Period": 8238,
      "uuid": 8239,
      "Ġgreen": 8240,
      "ĠCurrent": 8241,
      "Jo": 8242,
      "cleanup": 8243,
      "Ġrespon": 8244,
      "matched": 8245,
      "Dataset": 8246,
      "Ġresize": 8247,
      "Initial": 8248,
      "Construct": 8249,
      "Ġlocals": 8250,
      "ĠAdditional": 8251,
      "Streaming": 8252,
      "atalo": 8253,
      "Ġtied": 8254,
      "iel": 8255,
      "plots": 8256,
      "ĠAuth": 8257,
      "placement": 8258,
      "Ġaot": 8259,
      "olate": 8260,
      "Ġinterpolate": 8261,
      "2019": 8262,
      "creator": 8263,
      "LikeType": 8264,
      "decomposition": 8265,
      "Ġrecommended": 8266,
      "Please": 8267,
      "members": 8268,
      "findall": 8269,
      "ĠIntegral": 8270,
      "ctypes": 8271,
      "\"^": 8272,
      "ĠIssue": 8273,
      "iteration": 8274,
      "sinh": 8275,
      "CODE": 8276,
      "Ġrescale": 8277,
      "TEXT": 8278,
      "Guard": 8279,
      "ILE": 8280,
      "residual": 8281,
      "failed": 8282,
      "background": 8283,
      "OutputWithPast": 8284,
      "Ġextensions": 8285,
      "recursive": 8286,
      "Ġnone": 8287,
      "LOC": 8288,
      "Ġextended": 8289,
      "sigmoid": 8290,
      "Update": 8291,
      "Ġcoefficient": 8292,
      "\"})": 8293,
      "appa": 8294,
      "aryEmbedding": 8295,
      "Ġpydantic": 8296,
      "refresh": 8297,
      "ĠTensorType": 8298,
      ")-": 8299,
      "cus": 8300,
      "ufunc": 8301,
      "orn": 8302,
      "alg": 8303,
      "Ġglob": 8304,
      "symlink": 8305,
      "Ġpolicy": 8306,
      "accumul": 8307,
      "Ġjac": 8308,
      "monotonic": 8309,
      "kely": 8310,
      "selector": 8311,
      "114": 8312,
      "untimeWarning": 8313,
      "HEAD": 8314,
      "Ġpeertube": 8315,
      "Ġcombined": 8316,
      "guide": 8317,
      "Fill": 8318,
      "Ċĉ": 8319,
      "coordinates": 8320,
      "ETR": 8321,
      "scheduler": 8322,
      "ĠðŁļ¨ðŁļ¨ðŁļ¨ðŁļ¨ðŁļ¨ðŁļ¨ðŁļ¨ðŁļ¨ðŁļ¨ðŁļ¨ðŁļ¨ðŁļ¨ðŁļ¨ðŁļ¨ðŁļ¨ðŁļ¨ðŁļ¨ðŁļ¨ðŁļ¨ðŁļ¨ðŁļ¨ðŁļ¨ðŁļ¨ðŁļ¨ðŁļ¨ðŁļ¨ðŁļ¨ðŁļ¨ðŁļ¨ðŁļ¨ðŁļ¨ðŁļ¨": 8323,
      "('_": 8324,
      "ĠMARK": 8325,
      "ĠðŁļ¨ðŁļ¨ðŁļ¨ðŁļ¨ðŁļ¨ðŁļ¨ðŁļ¨ðŁļ¨ðŁļ¨ðŁļ¨ðŁļ¨ðŁļ¨ðŁļ¨ðŁļ¨ðŁļ¨ðŁļ¨ðŁļ¨ðŁļ¨ðŁļ¨ðŁļ¨ðŁļ¨ðŁļ¨ðŁļ¨ðŁļ¨ðŁļ¨ðŁļ¨ðŁļ¨ðŁļ¨ðŁļ¨ðŁļ¨ðŁļ¨ðŁļ¨ðŁļ¨ðŁļ¨ðŁļ¨ðŁļ¨ðŁļ¨ðŁļ¨ðŁļ¨ðŁļ¨ðŁļ¨ðŁļ¨ðŁļ¨ðŁļ¨ðŁļ¨ðŁļ¨ðŁļ¨ðŁļ¨": 8326,
      "ln": 8327,
      "stems": 8328,
      "tokenization": 8329,
      "packages": 8330,
      "Query": 8331,
      "Ġreceived": 8332,
      "qs": 8333,
      "alette": 8334,
      "astern": 8335,
      "readline": 8336,
      "Ġtrust": 8337,
      "erify": 8338,
      "Ġam": 8339,
      "Ġprom": 8340,
      "posit": 8341,
      "overlap": 8342,
      "itecture": 8343,
      "ĠFl": 8344,
      "\"',": 8345,
      "igid": 8346,
      "Ġfraction": 8347,
      "ĠPY": 8348,
      "Ġtransforms": 8349,
      "2007": 8350,
      "COMM": 8351,
      "Ġskips": 8352,
      "Ġok": 8353,
      "156": 8354,
      "Ġstarts": 8355,
      "Ġwriter": 8356,
      "Subclass": 8357,
      "164": 8358,
      "Double": 8359,
      "SY": 8360,
      "scape": 8361,
      "lest": 8362,
      "ĠDynamic": 8363,
      "ĠElement": 8364,
      "assertNotEqual": 8365,
      "Ġindiv": 8366,
      "Ġincorrect": 8367,
      "ĠAOT": 8368,
      "Ġutils": 8369,
      "Ġfailure": 8370,
      "Ġtreated": 8371,
      "Expression": 8372,
      "sect": 8373,
      "dec": 8374,
      "Ġscaled": 8375,
      "Ġlb": 8376,
      "Ġunexpected": 8377,
      "ĠQU": 8378,
      "Ġcasting": 8379,
      "Byte": 8380,
      "Override": 8381,
      "__':": 8382,
      "ables": 8383,
      "Ġdocs": 8384,
      "xyz": 8385,
      "visual": 8386,
      "Ġdepending": 8387,
      "Root": 8388,
      "Ġarchive": 8389,
      "Ġbracket": 8390,
      "urtle": 8391,
      "Ġcookie": 8392,
      "Ġrd": 8393,
      "Ġseveral": 8394,
      "metrics": 8395,
      "ifiers": 8396,
      "character": 8397,
      "requency": 8398,
      "Ac": 8399,
      "NONE": 8400,
      "ĠBoolean": 8401,
      "leton": 8402,
      "Ġindicate": 8403,
      "Ġmem": 8404,
      "Ġ655": 8405,
      "]]))": 8406,
      "Ġformatter": 8407,
      "Ġrepresented": 8408,
      "childNodes": 8409,
      "10000": 8410,
      "bre": 8411,
      "oe": 8412,
      "delay": 8413,
      "ĠNested": 8414,
      "vial": 8415,
      "Ġdecoding": 8416,
      "valued": 8417,
      "Ġtrailing": 8418,
      "epspeed": 8419,
      "evaluate": 8420,
      "\\'": 8421,
      "mv": 8422,
      "squ": 8423,
      "âĻ": 8424,
      "Ġparametr": 8425,
      "Ġnormalization": 8426,
      "prims": 8427,
      "Ġthreads": 8428,
      "Foo": 8429,
      "bile": 8430,
      "160": 8431,
      "hips": 8432,
      "ĠOrderedDict": 8433,
      "Hash": 8434,
      "Place": 8435,
      "ques": 8436,
      "2023": 8437,
      "Ġvars": 8438,
      "ĠBytesIO": 8439,
      "Ġ{(": 8440,
      "tau": 8441,
      "indexing": 8442,
      "Ġaddition": 8443,
      "ĠStream": 8444,
      "Ġconsistent": 8445,
      "Ġspecifying": 8446,
      "Ġprecedence": 8447,
      "GR": 8448,
      "duplicate": 8449,
      "Answer": 8450,
      "cending": 8451,
      "hard": 8452,
      "}]": 8453,
      "velo": 8454,
      "READ": 8455,
      "INFO": 8456,
      "*',": 8457,
      "lates": 8458,
      "Ġsecret": 8459,
      "Ġunpack": 8460,
      "Ġaren": 8461,
      "Ġcanvas": 8462,
      "mallest": 8463,
      "spline": 8464,
      "Ġkeywords": 8465,
      "Example": 8466,
      "Ġassumed": 8467,
      "byshev": 8468,
      "DI": 8469,
      "determin": 8470,
      "Address": 8471,
      "SER": 8472,
      "hemat": 8473,
      "odd": 8474,
      "hasattr": 8475,
      "ĠContext": 8476,
      "Seq": 8477,
      "operators": 8478,
      "tral": 8479,
      "118": 8480,
      "Ġshutil": 8481,
      "cumsum": 8482,
      "orary": 8483,
      "Ġscan": 8484,
      "icle": 8485,
      "CESS": 8486,
      "obs": 8487,
      "rone": 8488,
      "Ġspecifies": 8489,
      "BaseModel": 8490,
      "Ġpointer": 8491,
      "Ġquantize": 8492,
      "Checkpointing": 8493,
      "adam": 8494,
      "ĠCross": 8495,
      "ik": 8496,
      "Ġ`\\": 8497,
      "ĠSign": 8498,
      "Ġexpanded": 8499,
      "Ġscalars": 8500,
      "Ġdetermined": 8501,
      "Ġconnected": 8502,
      "radientCheckpointing": 8503,
      "Ġformula": 8504,
      "radientCheckpointingLayer": 8505,
      "Mis": 8506,
      "rgb": 8507,
      "ĠPR": 8508,
      "Ġexponent": 8509,
      "pied": 8510,
      "eous": 8511,
      "lit": 8512,
      "pb": 8513,
      "yler": 8514,
      "TENS": 8515,
      "Ġpermutation": 8516,
      "combine": 8517,
      "orizont": 8518,
      "=',": 8519,
      "salt": 8520,
      "ĠHere": 8521,
      "needs": 8522,
      "Ġequations": 8523,
      "ĠUpdate": 8524,
      "piece": 8525,
      "BER": 8526,
      "gres": 8527,
      "llama": 8528,
      "stand": 8529,
      "Ġexternal": 8530,
      "propagate": 8531,
      "ught": 8532,
      "specified": 8533,
      "ĠLocal": 8534,
      "99999999": 8535,
      "hide": 8536,
      "ĠABC": 8537,
      "ĠOption": 8538,
      "117": 8539,
      "ĠIndexError": 8540,
      "execution": 8541,
      "ĠAttrMapValue": 8542,
      "NC": 8543,
      "Ġtab": 8544,
      "atios": 8545,
      "ROL": 8546,
      "maginary": 8547,
      "jango": 8548,
      "more": 8549,
      "Ġchecked": 8550,
      "Algorithm": 8551,
      "142": 8552,
      "PREFIX": 8553,
      "Ġdevices": 8554,
      "MV": 8555,
      "await": 8556,
      "sence": 8557,
      "Ġbytearray": 8558,
      "Month": 8559,
      "}-": 8560,
      "Ġnu": 8561,
      "102": 8562,
      "119": 8563,
      "anit": 8564,
      "isable": 8565,
      "legendre": 8566,
      "too": 8567,
      "LECT": 8568,
      "ĠRotation": 8569,
      "Use": 8570,
      "Ġbackends": 8571,
      "RT": 8572,
      "inomial": 8573,
      "define": 8574,
      "outs": 8575,
      "Ġ45": 8576,
      "ifest": 8577,
      "Ġcharset": 8578,
      "Ġrotary": 8579,
      "Ġshare": 8580,
      "Ġ33": 8581,
      "blas": 8582,
      "serialize": 8583,
      "Ġsm": 8584,
      "Ġconsu": 8585,
      "opens": 8586,
      "comments": 8587,
      "JzKetCoupled": 8588,
      "ĠMaximum": 8589,
      "132": 8590,
      "Custom": 8591,
      "Ġwhitespace": 8592,
      "EXT": 8593,
      "Overload": 8594,
      "mrow": 8595,
      "ceed": 8596,
      "006": 8597,
      "ĠMessage": 8598,
      "REC": 8599,
      "cluded": 8600,
      "structured": 8601,
      "merged": 8602,
      "sensitive": 8603,
      "DB": 8604,
      "XML": 8605,
      "affine": 8606,
      "Ġredirect": 8607,
      "Ġencounter": 8608,
      "115": 8609,
      "Future": 8610,
      "Ġtear": 8611,
      "Ġche": 8612,
      "ĠHandle": 8613,
      "Ġinductor": 8614,
      "unsafe": 8615,
      "Ġeos": 8616,
      "ĠTypeAlias": 8617,
      "SI": 8618,
      "Ġalignment": 8619,
      "quantum": 8620,
      "dispatcher": 8621,
      "AAAAAAAA": 8622,
      "Ġfetch": 8623,
      "unlink": 8624,
      "astic": 8625,
      "Ġmatplotlib": 8626,
      "environment": 8627,
      "compression": 8628,
      "Abstract": 8629,
      "Ġnc": 8630,
      "asin": 8631,
      "pooler": 8632,
      "flowError": 8633,
      "Ġevaluated": 8634,
      "WE": 8635,
      "Ġfurther": 8636,
      "ĠPo": 8637,
      "upt": 8638,
      "rac": 8639,
      "ulative": 8640,
      "ĠRandom": 8641,
      "Ġtemperature": 8642,
      "Ġ=======": 8643,
      "Queue": 8644,
      "ataloader": 8645,
      "ĠGiven": 8646,
      "Ġprobably": 8647,
      "ĠSizeDict": 8648,
      "ronecker": 8649,
      "USE": 8650,
      "rodu": 8651,
      "username": 8652,
      "SchedulerNode": 8653,
      "!\"),": 8654,
      "Redu": 8655,
      "rece": 8656,
      "ranite": 8657,
      "Store": 8658,
      "CKET": 8659,
      "ijer": 8660,
      "lips": 8661,
      "ĠFast": 8662,
      "**(-": 8663,
      "author": 8664,
      "Ġsupplied": 8665,
      "oman": 8666,
      "tains": 8667,
      "Ġopenpyxl": 8668,
      "Ġequality": 8669,
      "134": 8670,
      "nth": 8671,
      "anal": 8672,
      "Ġdegrees": 8673,
      "ĠDeprecationWarning": 8674,
      "ĠStringIO": 8675,
      "What": 8676,
      "ĠPydantic": 8677,
      "Ġ(?:": 8678,
      "./": 8679,
      "Ġreferences": 8680,
      "truncate": 8681,
      "RotaryEmbedding": 8682,
      "Division": 8683,
      "=(\"": 8684,
      "Be": 8685,
      "pivot": 8686,
      "Ġpayload": 8687,
      "Ġaccepts": 8688,
      "Ġtk": 8689,
      "Ġvs": 8690,
      "agger": 8691,
      "ants": 8692,
      "rowser": 8693,
      "ĠConnection": 8694,
      "Ġusername": 8695,
      "Ġassigned": 8696,
      "Ġtrigger": 8697,
      "ĠInfoExtractor": 8698,
      "glob": 8699,
      "atCompletion": 8700,
      "Ġred": 8701,
      "esting": 8702,
      "ĠAbstract": 8703,
      "ĠWrap": 8704,
      "Ġoverridden": 8705,
      "2001": 8706,
      "ODE": 8707,
      "mar": 8708,
      "Ġhaving": 8709,
      "scrimin": 8710,
      "Ġrefresh": 8711,
      "Ġintegration": 8712,
      "Cell": 8713,
      "Ho": 8714,
      "adic": 8715,
      "oauth": 8716,
      "inc": 8717,
      "ĠNB": 8718,
      "Ġprocesses": 8719,
      "Ġnewline": 8720,
      "ĠDiffer": 8721,
      "overrides": 8722,
      "Entity": 8723,
      ":^": 8724,
      "Pack": 8725,
      "SPE": 8726,
      "WI": 8727,
      "Ġfour": 8728,
      "Entropy": 8729,
      "Memory": 8730,
      "Ġcertain": 8731,
      "trast": 8732,
      "Ġpyasn": 8733,
      "CONFIG": 8734,
      "ĠPreTrainedModel": 8735,
      "%(": 8736,
      "ric": 8737,
      "Ġusually": 8738,
      "MEAN": 8739,
      "CUTE": 8740,
      "credentials": 8741,
      "tracer": 8742,
      "ĠStat": 8743,
      "Ġevaluation": 8744,
      "Su": 8745,
      "ctet": 8746,
      "``:": 8747,
      "readonly": 8748,
      "modal": 8749,
      "olicy": 8750,
      "Ġ\"\"\",": 8751,
      "Ġdoing": 8752,
      "styles": 8753,
      "Ġassignment": 8754,
      "ĠTry": 8755,
      "129": 8756,
      "ĠTests": 8757,
      "ono": 8758,
      "grouping": 8759,
      "Ġneighb": 8760,
      "facebook": 8761,
      "Ġwindows": 8762,
      "pixels": 8763,
      "Ġdecomposition": 8764,
      "isfile": 8765,
      "Ġcoordinate": 8766,
      "Exit": 8767,
      "legate": 8768,
      "dependencies": 8769,
      "Ġreportlab": 8770,
      "concatenate": 8771,
      "gonal": 8772,
      "Ġsur": 8773,
      "esse": 8774,
      "datasets": 8775,
      "Storage": 8776,
      "Ġservice": 8777,
      "ĠAutoModel": 8778,
      "pository": 8779,
      "hot": 8780,
      "Ġ\":": 8781,
      "chart": 8782,
      "Ġ)/": 8783,
      "Ġtruncation": 8784,
      "Ġinfinite": 8785,
      "ased": 8786,
      "Console": 8787,
      "Ġsuite": 8788,
      "ĠWeight": 8789,
      "clic": 8790,
      "raries": 8791,
      "edi": 8792,
      "ĠNS": 8793,
      "stionAnswer": 8794,
      "stionAnswering": 8795,
      "Eastern": 8796,
      "Gamma": 8797,
      "codecs": 8798,
      "107": 8799,
      "fork": 8800,
      "Ġsubmodule": 8801,
      "Ġinterp": 8802,
      "Masked": 8803,
      "Ġtan": 8804,
      "Ġretry": 8805,
      "tasks": 8806,
      "CB": 8807,
      "Ġlive": 8808,
      "Ġdefines": 8809,
      "003": 8810,
      "sharding": 8811,
      "\\\\\\": 8812,
      "rtual": 8813,
      "TIMEOUT": 8814,
      "allenge": 8815,
      "Action": 8816,
      "SIG": 8817,
      "ifact": 8818,
      "jax": 8819,
      "Ġcs": 8820,
      "Ġinvert": 8821,
      "Ġ(:": 8822,
      "coef": 8823,
      "ĠTemp": 8824,
      "graphs": 8825,
      "Ġweighted": 8826,
      "\"/>": 8827,
      "Ġ##": 8828,
      "Ġdeg": 8829,
      "itemsize": 8830,
      "Ġaccepted": 8831,
      "Ġsqlalchemy": 8832,
      "Abs": 8833,
      "given": 8834,
      "',)),": 8835,
      "colwise": 8836,
      "interpolation": 8837,
      "interleave": 8838,
      "ĠComplex": 8839,
      "translate": 8840,
      "Ġskipped": 8841,
      "Ġconvention": 8842,
      "Ġvisible": 8843,
      "Ġtasks": 8844,
      "Ġhooks": 8845,
      "****************": 8846,
      "between": 8847,
      "ancy": 8848,
      "Ġtok": 8849,
      "classification": 8850,
      "dezv": 8851,
      "Ġcla": 8852,
      "ĠDef": 8853,
      "shake": 8854,
      "dezvous": 8855,
      "Bad": 8856,
      "152": 8857,
      "116": 8858,
      "_\",": 8859,
      "vs": 8860,
      "Ġfactory": 8861,
      "Spline": 8862,
      "vanced": 8863,
      "+-": 8864,
      "]_.": 8865,
      "Ġens": 8866,
      "Ġaspect": 8867,
      "ĠPow": 8868,
      "trust": 8869,
      "tagFormat": 8870,
      "ĠBaseModelOutputWithPast": 8871,
      "Ġtail": 8872,
      ")|": 8873,
      "longest": 8874,
      "Resource": 8875,
      "devices": 8876,
      "133": 8877,
      "rstrip": 8878,
      "Ġrepeated": 8879,
      "Ġdynamo": 8880,
      "INIT": 8881,
      "Ġranges": 8882,
      "tagClass": 8883,
      "Unsupported": 8884,
      "ĠDomainMatrix": 8885,
      "DD": 8886,
      "band": 8887,
      "ided": 8888,
      "nv": 8889,
      "strap": 8890,
      "Ġmime": 8891,
      "shutdown": 8892,
      "147": 8893,
      "dimensions": 8894,
      "Ġbackwards": 8895,
      "gemma": 8896,
      "Ġunion": 8897,
      "Ġcodec": 8898,
      "Ġhighlight": 8899,
      "#=============================================================================": 8900,
      "Core": 8901,
      "Ġpid": 8902,
      "olynomial": 8903,
      "Ġmaint": 8904,
      "gramm": 8905,
      ")')": 8906,
      "cookie": 8907,
      "integr": 8908,
      "ĠSH": 8909,
      "Ġunused": 8910,
      "emm": 8911,
      "111": 8912,
      "INGLE": 8913,
      "Namespace": 8914,
      "atom": 8915,
      "esh": 8916,
      "previous": 8917,
      "Cert": 8918,
      "Ġnpt": 8919,
      "role": 8920,
      "otstrap": 8921,
      "fileno": 8922,
      "ĠPeriodIndex": 8923,
      "ĠIdent": 8924,
      "ĠHel": 8925,
      "DICT": 8926,
      "xi": 8927,
      "Ġspect": 8928,
      "Bounds": 8929,
      "Command": 8930,
      "Ġwave": 8931,
      "quo": 8932,
      "Ġconfigs": 8933,
      "canvas": 8934,
      "MULT": 8935,
      "{{": 8936,
      "ale": 8937,
      "ĠLIC": 8938,
      "Ġselector": 8939,
      "hogonal": 8940,
      "pending": 8941,
      "InstructionTranslator": 8942,
      "ĠLICENSE": 8943,
      "OB": 8944,
      "har": 8945,
      "Ġ\"[": 8946,
      "rounding": 8947,
      "Ġhypot": 8948,
      "([])": 8949,
      "urls": 8950,
      "Ġqconfig": 8951,
      "Ġcaller": 8952,
      "syntax": 8953,
      "while": 8954,
      "Timedelta": 8955,
      "OID": 8956,
      "ulli": 8957,
      "ĠACUTE": 8958,
      "foot": 8959,
      "Ġsubsequent": 8960,
      "Ġabc": 8961,
      "observed": 8962,
      "NING": 8963,
      "ĠDB": 8964,
      "posix": 8965,
      "sided": 8966,
      "Ġreading": 8967,
      "iltin": 8968,
      "aug": 8969,
      "keypoints": 8970,
      "DEBUG": 8971,
      "Classifier": 8972,
      "Signature": 8973,
      "AV": 8974,
      "]'": 8975,
      "iable": 8976,
      "Ġfact": 8977,
      "izable": 8978,
      "Ġhit": 8979,
      "ĠConstruct": 8980,
      "Lambda": 8981,
      "quoted": 8982,
      "033": 8983,
      "rw": 8984,
      "resources": 8985,
      "Ġ48": 8986,
      "tracing": 8987,
      "argmax": 8988,
      "wraps": 8989,
      "priority": 8990,
      "cursively": 8991,
      "lru": 8992,
      "ORTED": 8993,
      "utorial": 8994,
      "Ġaggreg": 8995,
      "samp": 8996,
      "anization": 8997,
      "ĠBad": 8998,
      "Ġsubs": 8999,
      "rash": 9000,
      "noulli": 9001,
      "Ġintermediates": 9002,
      "buckets": 9003,
      "revision": 9004,
      "cluster": 9005,
      "ĠJo": 9006,
      "supp": 9007,
      "assertNotIn": 9008,
      "Llama": 9009,
      "Ġ?": 9010,
      "ĠTR": 9011,
      "visible": 9012,
      "ĠLayer": 9013,
      "deprecation": 9014,
      "Ġfeed": 9015,
      "Ġselection": 9016,
      "01234": 9017,
      ":`(": 9018,
      "Case": 9019,
      "singleton": 9020,
      "ORIZ": 9021,
      "general": 9022,
      "Collection": 9023,
      "utilities": 9024,
      ".*?": 9025,
      "Ġ2025": 9026,
      "uting": 9027,
      "downsample": 9028,
      "binding": 9029,
      "SequenceClassification": 9030,
      "ereleases": 9031,
      "Ġ([\"": 9032,
      "Ġmeth": 9033,
      "Ġfactorial": 9034,
      "Ġthough": 9035,
      "pytree": 9036,
      "ĠUsing": 9037,
      "113": 9038,
      "Ġhappens": 9039,
      "!\")": 9040,
      "Ġaccelerator": 9041,
      "ĠĠĠĠĠĠĠĠĠĠĠĠĠĠĠĠĠĠĠĠĠĠĠĠĠĠ": 9042,
      "Ġserialization": 9043,
      "nul": 9044,
      "atures": 9045,
      "alan": 9046,
      "ism": 9047,
      "collections": 9048,
      "jk": 9049,
      "alive": 9050,
      "raction": 9051,
      "asible": 9052,
      "ĠDon": 9053,
      "mogen": 9054,
      "Ġchars": 9055,
      "multiply": 9056,
      "ĠIPv": 9057,
      "tiny": 9058,
      "Ġreorder": 9059,
      "Ġdigest": 9060,
      "Ġorient": 9061,
      "139": 9062,
      "ĠParameter": 9063,
      "ROW": 9064,
      "solver": 9065,
      "Ġdownsample": 9066,
      "Ġduplicate": 9067,
      "Ġproble": 9068,
      "ABIC": 9069,
      "ISO": 9070,
      "ĠCONTROL": 9071,
      "uptools": 9072,
      "XY": 9073,
      "Ġrnd": 9074,
      "ĠEnum": 9075,
      "ĠHe": 9076,
      "Ġfloor": 9077,
      "Ġcc": 9078,
      "Ġpdf": 9079,
      "Ġ43": 9080,
      "tracker": 9081,
      "ForSequenceClassification": 9082,
      "rotate": 9083,
      "lesky": 9084,
      "RGB": 9085,
      "Ġcg": 9086,
      "minor": 9087,
      "ĠComputes": 9088,
      "ĠFakeTensor": 9089,
      "trees": 9090,
      "CUM": 9091,
      "Ġissues": 9092,
      "Provider": 9093,
      "2010": 9094,
      "Ġworking": 9095,
      "Ġ-->": 9096,
      "Ġsimply": 9097,
      "Ġindividual": 9098,
      "Ts": 9099,
      "seqlens": 9100,
      "capabilities": 9101,
      "ĠReferenceFrame": 9102,
      "Ġgenerating": 9103,
      "Arrow": 9104,
      "tied": 9105,
      "Ġroutine": 9106,
      "fwd": 9107,
      "sses": 9108,
      "coo": 9109,
      "ĠFoo": 9110,
      "Copy": 9111,
      "Ġ32768": 9112,
      "Ġfname": 9113,
      "Ġspaces": 9114,
      "Ġ59": 9115,
      "acquire": 9116,
      "136": 9117,
      "Help": 9118,
      ",)),": 9119,
      "Target": 9120,
      "tot": 9121,
      "arb": 9122,
      "DESCRIP": 9123,
      "eck": 9124,
      "mel": 9125,
      "Ġ199": 9126,
      "ĠEmbed": 9127,
      "Ġdom": 9128,
      "polar": 9129,
      "Predicate": 9130,
      "&#": 9131,
      "ih": 9132,
      "Ġ\")": 9133,
      "Ġperm": 9134,
      "Names": 9135,
      "Local": 9136,
      "Hello": 9137,
      "Ġbeginning": 9138,
      "black": 9139,
      "cwd": 9140,
      "orskip": 9141,
      "Ġtw": 9142,
      "reversed": 9143,
      "hest": 9144,
      "infinite": 9145,
      "Ġchosen": 9146,
      "PER": 9147,
      "qwen": 9148,
      "=[[": 9149,
      "Ġut": 9150,
      "rogram": 9151,
      "Ġ3072": 9152,
      "formula": 9153,
      "notes": 9154,
      "Ġacc": 9155,
      "Ġattempt": 9156,
      "zed": 9157,
      "reater": 9158,
      "Ġscales": 9159,
      "ĠNow": 9160,
      "vocation": 9161,
      "slash": 9162,
      "divisor": 9163,
      "ĠVERT": 9164,
      "Codec": 9165,
      "NamedTypes": 9166,
      "ĠVERTICAL": 9167,
      ";'": 9168,
      "Fl": 9169,
      "Ġhour": 9170,
      "108": 9171,
      "multiplier": 9172,
      "Position": 9173,
      "gpt": 9174,
      "erf": 9175,
      "importorskip": 9176,
      "splitlines": 9177,
      "ĠThen": 9178,
      "ĠARABIC": 9179,
      "_[": 9180,
      "Ġclip": 9181,
      "competition": 9182,
      "Top": 9183,
      "sam": 9184,
      "103": 9185,
      "notation": 9186,
      "umbnails": 9187,
      "Ġproduced": 9188,
      "actions": 9189,
      "pub": 9190,
      "ĠSelect": 9191,
      "ĠBaseException": 9192,
      "dispatchable": 9193,
      "alker": 9194,
      "RandomState": 9195,
      "ĠWrite": 9196,
      "orizontal": 9197,
      "}/{": 9198,
      "Ġ=>": 9199,
      "Ġschedule": 9200,
      "}'.": 9201,
      "always": 9202,
      "aps": 9203,
      "122": 9204,
      "\\\\\\\\": 9205,
      "Ġderived": 9206,
      "cx": 9207,
      "uer": 9208,
      "\"\")": 9209,
      "Ġstroke": 9210,
      "Ġtimezone": 9211,
      "skipna": 9212,
      "Ġapplication": 9213,
      "switch": 9214,
      "Ġexpects": 9215,
      "Stack": 9216,
      "itor": 9217,
      "does": 9218,
      "Ġmeaning": 9219,
      "HTML": 9220,
      "TA": 9221,
      "Ġquestion": 9222,
      "Ġphase": 9223,
      "ubic": 9224,
      "')]": 9225,
      "celerate": 9226,
      "ĠColor": 9227,
      "Ġ#================================================================": 9228,
      "ĠNE": 9229,
      "Ġcompressed": 9230,
      "Ġmemoryview": 9231,
      "acobi": 9232,
      "Ġbuiltin": 9233,
      "Ġdecoded": 9234,
      "Ġrespectively": 9235,
      "FIL": 9236,
      "Policy": 9237,
      "Scale": 9238,
      "Ġlora": 9239,
      "Ġweek": 9240,
      "SUPP": 9241,
      "]['": 9242,
      "LEMENT": 9243,
      "catter": 9244,
      "LOAD": 9245,
      "Ġmismatch": 9246,
      "Ordered": 9247,
      "amba": 9248,
      "paren": 9249,
      "Ġplain": 9250,
      "uv": 9251,
      "cookies": 9252,
      "login": 9253,
      "basename": 9254,
      "149": 9255,
      "Ġodd": 9256,
      "Ġ(``": 9257,
      "ĠDM": 9258,
      "ATOR": 9259,
      "protobuf": 9260,
      "Ġdenominator": 9261,
      "(...": 9262,
      "CType": 9263,
      "unexpected": 9264,
      "ĠNeed": 9265,
      "ĠIs": 9266,
      "Ġ@_": 9267,
      "IGNO": 9268,
      "ĠAutoTokenizer": 9269,
      "QUAL": 9270,
      "umptions": 9271,
      "ĠSupport": 9272,
      "Ġlogs": 9273,
      "Ġlocale": 9274,
      "freeze": 9275,
      "Ġkwarg": 9276,
      "ĠSci": 9277,
      "ĠCre": 9278,
      "2022": 9279,
      "PIPE": 9280,
      "cipher": 9281,
      "GTH": 9282,
      "ĠDes": 9283,
      "gnet": 9284,
      "Ġbases": 9285,
      "inov": 9286,
      "lott": 9287,
      "egg": 9288,
      "Real": 9289,
      "need": 9290,
      "Ġdependencies": 9291,
      "consist": 9292,
      ">`.": 9293,
      "was": 9294,
      "rib": 9295,
      "Ġimplementations": 9296,
      "Ġnor": 9297,
      "immutable": 9298,
      "Ġdetail": 9299,
      "Ġbuiltins": 9300,
      "Cre": 9301,
      "Ġcdf": 9302,
      "Ġsil": 9303,
      "Ġprop": 9304,
      "ĠSeq": 9305,
      "LIST": 9306,
      "DivisionError": 9307,
      "+)'": 9308,
      "Ġide": 9309,
      "Ġassi": 9310,
      "updated": 9311,
      "009": 9312,
      "Ġmembers": 9313,
      "hop": 9314,
      "herm": 9315,
      "ront": 9316,
      "modular": 9317,
      "Iterator": 9318,
      "ĠDeepseek": 9319,
      "Ġrf": 9320,
      "Ġprofile": 9321,
      "ĠĠĠĠĠĠĠĠĠĠĠĠĠĠĠĠĠĠĠĠ": 9322,
      "Ġversionchanged": 9323,
      "=[],": 9324,
      "Ġidentical": 9325,
      "}.{": 9326,
      "produces": 9327,
      "Sample": 9328,
      "woman": 9329,
      "unary": 9330,
      "Ġ2024": 9331,
      "ĠPRO": 9332,
      "xxx": 9333,
      "MD": 9334,
      "]`:": 9335,
      "chi": 9336,
      "ĠImmutable": 9337,
      "ĠBool": 9338,
      "FAIL": 9339,
      "Ġzipfile": 9340,
      "Ġcalculation": 9341,
      "Ob": 9342,
      "Ġquote": 9343,
      "mpletions": 9344,
      "hls": 9345,
      "tm": 9346,
      "unbacked": 9347,
      "processes": 9348,
      "ĠWeb": 9349,
      "trim": 9350,
      "POINT": 9351,
      "?\",": 9352,
[...]
